<unk>	0
<s>	0
</s>	0
,	-2.68979
。	-3.81038
的	-3.93533
、	-4.29751
:	-4.52766
?	-5.27194
在	-5.3535
和	-5.43393
(	-5.45987
)	-5.48372
了	-5.50624
是	-5.53786
.	-5.68223
“	-5.88836
有	-5.89374
!	-5.97205
中	-6.13614
我	-6.15074
”	-6.15797
;	-6.22703
/	-6.228
为	-6.24373
不	-6.271
上	-6.27204
年	-6.27831
等	-6.32673
人	-6.34163
大	-6.3761
与	-6.38451
1	-6.41062
一	-6.41827
你	-6.46014
后	-6.4883
2	-6.52898
到	-6.55626
对	-6.5746
时	-6.58723
小	-6.59563
月	-6.63719
用	-6.64069
3	-6.64177
-	-6.64971
...	-6.6544
就	-6.65504
》	-6.65745
也	-6.70308
或	-6.71464
《	-6.72493
而	-6.72688
可以	-6.75992
▁	-6.76721
来	-6.78769
要	-6.80534
他	-6.84457
4	-6.86581
会	-6.88111
好	-6.88426
以	-6.89297
将	-6.90408
5	-6.9077
可	-6.92569
下	-6.92912
都	-6.92926
日	-6.93664
元	-6.95492
水	-6.95541
一个	-6.96054
地	-6.9684
多	-6.9835
我们	-6.99996
天	-7.00262
去	-7.00373
从	-7.0068
及	-7.04045
??	-7.05231
被	-7.05353
第	-7.05579
之	-7.07916
三	-7.09581
性	-7.13403
没有	-7.13852
10	-7.14314
高	-7.15393
就是	-7.15989
能	-7.163
这	-7.16762
里	-7.1867
说	-7.19324
自己	-7.20646
子	-7.20952
a	-7.21601
个	-7.21638
她	-7.21775
6	-7.22211
但	-7.22529
这个	-7.23005
章	-7.25167
点	-7.25355
如	-7.25368
号	-7.25592
把	-7.25698
新	-7.26169
进行	-7.26259
着	-7.26549
分	-7.26759
出	-7.2742
如果	-7.27749
c	-7.27817
无	-7.2921
com	-7.3141
使用	-7.33172
7	-7.34347
时间	-7.3472
】	-7.34905
过	-7.35223
8	-7.35865
前	-7.37185
公司	-7.37232
吧	-7.37364
又	-7.3785
路	-7.38154
服务	-7.38626
长	-7.38789
所以	-7.40403
看	-7.40529
于	-7.40733
做	-7.41801
还	-7.41877
心	-7.41925
家	-7.42015
s	-7.42467
b	-7.4289
机	-7.43255
需要	-7.44042
并	-7.44177
二	-7.44489
但是	-7.44596
花	-7.45008
|	-7.45505
吗	-7.46102
因为	-7.47311
的时候	-7.47884
其	-7.49405
再	-7.49538
那	-7.49606
中国	-7.50289
手机	-7.5058
内	-7.50872
者	-7.51472
呢	-7.51646
车	-7.51746
得	-7.52467
还是	-7.52509
金	-7.54712
山	-7.54745
开	-7.55154
区	-7.55291
~	-7.553
选择	-7.56615
成	-7.56824
产品	-7.56896
很	-7.56898
m	-7.57658
网	-7.57707
生	-7.58073
·	-7.5816
最	-7.58318
头	-7.59169
更	-7.59755
市	-7.60012
d	-7.60029
9	-7.60825
啊	-7.61058
发	-7.61804
]	-7.61964
由	-7.63376
给	-7.63418
【	-7.63647
12	-7.64491
+	-7.64511
王	-7.64878
万	-7.65399
20	-7.65525
当	-7.66702
本	-7.67304
一般	-7.67364
都是	-7.68054
打	-7.6841
所	-7.68889
系统	-7.6921
线	-7.69838
白	-7.69906
通过	-7.7003
工作	-7.70193
信息	-7.70279
名	-7.70412
它	-7.70459
游戏	-7.70772
让	-7.71034
或者	-7.71615
g	-7.72045
吃	-7.72072
那么	-7.7209
比	-7.7223
x	-7.72849
治疗	-7.72862
该	-7.73523
现在	-7.73774
回答	-7.7395
张	-7.74088
想	-7.74312
一些	-7.74995
学	-7.75195
四	-7.75309
道	-7.75372
红	-7.76904
文	-7.76987
问题	-7.77322
风	-7.77389
爱	-7.77928
门	-7.78004
法	-7.78258
面	-7.78588
老	-7.78834
价格	-7.79017
卡	-7.80005
15	-7.81011
字	-7.81181
......	-7.81548
外	-7.81657
行	-7.81703
_	-7.82487
向	-7.82569
女	-7.82655
:“	-7.83466
全	-7.83825
带	-7.83876
的人	-7.8396
起	-7.84104
11	-7.84177
也是	-7.84344
什么	-7.8539
。”	-7.85486
方法	-7.8549
他们	-7.8583
的话	-7.85845
下载	-7.8639
0	-7.86818
[	-7.86994
加	-7.87027
图	-7.87186
自	-7.87325
不能	-7.87668
光	-7.87903
美	-7.88763
式	-7.88797
——	-7.888
以及	-7.88841
已	-7.89097
已经	-7.8928
五	-7.89822
手	-7.90004
企业	-7.90012
30	-7.90143
电话	-7.90345
设计	-7.90622
请	-7.90789
怎么	-7.9115
没	-7.91317
至	-7.91404
龙	-7.91409
▁?	-7.91571
专业	-7.91921
而且	-7.92584
海	-7.92825
还有	-7.93352
然后	-7.93381
v	-7.93541
品牌	-7.94499
米	-7.95027
气	-7.95233
黄	-7.95519
很多	-7.95827
先	-7.95987
城	-7.96279
两	-7.97053
开始	-7.97066
qq	-7.97634
正	-7.97656
这样	-7.97684
西	-7.97708
生活	-7.98635
之后	-7.98805
对于	-7.98939
技术	-7.98942
提供	-7.99273
数	-7.99325
口	-7.99992
国	-8.00154
24	-8.00161
岁	-8.00167
型	-8.0029
这些	-8.00297
单	-8.00488
t	-8.00824
克	-8.01039
片	-8.01247
功能	-8.01529
化	-8.01802
次	-8.01947
使	-8.02006
重	-8.02288
地址	-8.02541
来源	-8.0285
李	-8.02885
学习	-8.0361
应	-8.03709
清	-8.03864
马	-8.0408
不是	-8.04421
度	-8.04891
"	-8.04907
神	-8.05763
p	-8.06077
石	-8.06458
您	-8.06603
活动	-8.07114
其他	-8.07131
问	-8.07785
油	-8.08402
入	-8.08473
量	-8.0851
则	-8.08655
如何	-8.08711
一下	-8.08876
不要	-8.08877
推荐	-8.08901
热	-8.08952
同时	-8.09079
设备	-8.09136
期	-8.09216
太	-8.0927
这种	-8.09405
只	-8.09546
建议	-8.0992
却	-8.09933
不过	-8.10018
火	-8.10092
体	-8.10294
比较	-8.10686
更多	-8.10847
各种	-8.10954
管理	-8.11383
2018	-8.1173
干	-8.11748
点击	-8.11761
平	-8.12055
”,	-8.12284
类	-8.12306
鱼	-8.12316
软件	-8.12499
林	-8.12509
东	-8.12535
出现	-8.12666
力	-8.12689
管	-8.1307
南	-8.13114
=	-8.13377
18	-8.13564
书	-8.13615
色	-8.13716
病	-8.13801
黑	-8.14406
条	-8.14728
版	-8.15559
才	-8.15567
像	-8.15606
25	-8.15627
按	-8.16001
>	-8.16112
县	-8.16129
经	-8.16294
医院	-8.16332
明	-8.16387
你的	-8.16553
作者	-8.16695
安	-8.1678
具有	-8.16829
自己的	-8.16867
o	-8.1688
位	-8.16972
拉	-8.17042
要求	-8.1709
同	-8.17192
效果	-8.17297
进入	-8.17402
双	-8.17634
走	-8.17859
16	-8.17952
k	-8.17973
北京	-8.18292
安全	-8.18302
方	-8.18375
进	-8.18889
图片	-8.19044
因	-8.19075
放	-8.19302
华	-8.19358
e	-8.19703
买	-8.19722
回	-8.20039
直接	-8.203
不同	-8.20327
强	-8.20557
部	-8.20615
内容	-8.20654
云	-8.20801
快	-8.20805
主	-8.20943
19	-8.20997
板	-8.21565
根据	-8.21904
世界	-8.224
l	-8.22464
处	-8.22659
德	-8.22898
其实	-8.23026
总	-8.23211
站	-8.23239
:??	-8.23365
发展	-8.23396
级	-8.23925
>>	-8.24017
国家	-8.24025
包	-8.24166
器	-8.24175
21	-8.24271
跟	-8.2428
男	-8.2539
50	-8.25401
真	-8.25431
作为	-8.25535
网络	-8.25639
非常	-8.25684
周	-8.25733
23	-8.25851
孩子	-8.25861
作	-8.25907
n	-8.25994
视频	-8.26187
木	-8.26259
店	-8.269
通	-8.26934
用户	-8.26966
低	-8.27397
我的	-8.27696
由于	-8.28031
13	-8.28063
喜欢	-8.28076
方式	-8.28141
阅读	-8.28162
转	-8.2824
血	-8.28429
100	-8.28451
教育	-8.2849
台	-8.28688
眼	-8.28717
f	-8.28767
检查	-8.28773
处理	-8.28925
安装	-8.29055
健康	-8.29093
事	-8.29113
学校	-8.29221
详情	-8.29324
声	-8.29351
大家	-8.29937
w	-8.2995
叶	-8.3065
酒	-8.30798
14	-8.3088
即	-8.31231
情况	-8.31242
以上	-8.31305
。“	-8.31391
发现	-8.31606
设置	-8.31616
中心	-8.31691
此	-8.31773
市场	-8.31783
目前	-8.31791
主要	-8.31814
只有	-8.324
系	-8.32424
少	-8.32709
一样	-8.32973
因此	-8.33376
中的	-8.33507
环境	-8.33599
星	-8.33669
i	-8.33922
指	-8.33969
死	-8.34048
可能	-8.34288
钱	-8.34335
皮	-8.34572
应该	-8.34628
支持	-8.34946
能够	-8.35118
种	-8.35216
飞	-8.35432
虽然	-8.35433
h	-8.3554
流	-8.3558
香	-8.35607
即可	-8.35723
药	-8.35724
特	-8.36191
皮肤	-8.36238
大学	-8.36682
以后	-8.36741
”。	-8.36777
超	-8.36915
电	-8.37143
表	-8.37146
非	-8.37162
app	-8.37173
项目	-8.37402
一次	-8.3741
第一	-8.37679
原	-8.3773
*	-8.37779
连	-8.38316
材料	-8.38378
写	-8.38474
送	-8.38708
介绍	-8.39426
控制	-8.39609
哦	-8.39644
每	-8.39859
这是	-8.40413
见	-8.40573
各	-8.4074
老师	-8.408
选	-8.40913
相	-8.41072
@	-8.41152
学生	-8.41451
变	-8.41521
17	-8.41541
成为	-8.41652
1.	-8.41819
动	-8.41824
最后	-8.41871
们	-8.41896
若	-8.42317
微信	-8.42335
乐	-8.42355
装	-8.42362
个人	-8.42524
儿	-8.42715
能力	-8.42961
今天	-8.42998
采用	-8.43043
baidu	-8.43274
平台	-8.43326
患者	-8.43783
边	-8.43822
看到	-8.43934
北	-8.44061
汽车	-8.44126
宝	-8.44166
。2、	-8.44257
2019	-8.44264
陈	-8.44384
利	-8.44602
粉	-8.44616
约	-8.44651
为了	-8.44682
集	-8.44972
感	-8.45255
身	-8.45735
六	-8.46071
叫	-8.46498
影响	-8.46555
青	-8.46722
找	-8.46958
科	-8.4698
答	-8.46984
未	-8.47031
mm	-8.47175
所有	-8.47256
拥有	-8.47389
40	-8.47478
其中	-8.47676
y	-8.47741
楼	-8.47748
共	-8.48007
关于	-8.48013
打开	-8.48046
达	-8.48369
别	-8.48373
你好	-8.48474
表示	-8.48521
画	-8.488
运动	-8.48849
满	-8.49241
师	-8.49274
类型	-8.4944
换	-8.49447
生产	-8.49652
作用	-8.49712
半	-8.4973
地区	-8.49799
操作	-8.49809
军	-8.49848
起来	-8.4994
包括	-8.49993
肉	-8.50059
部分	-8.5028
注意	-8.5044
情	-8.50647
层	-8.50996
免费	-8.51038
斯	-8.51131
江	-8.51184
更新	-8.51185
公	-8.51321
电脑	-8.51459
jingyan	-8.51472
深	-8.51474
镇	-8.51642
受	-8.51687
上海	-8.51755
求	-8.51875
只是	-8.51922
自然	-8.51935
玩	-8.51992
菜	-8.5201
r	-8.52131
相关	-8.52222
款	-8.5229
分钟	-8.52353
www	-8.52405
感觉	-8.52539
物	-8.52605
定	-8.5286
难	-8.53042
球	-8.53123
制	-8.53134
盘	-8.53257
09	-8.53345
草	-8.53364
铁	-8.53385
成功	-8.53726
不会	-8.53728
身体	-8.5396
了解	-8.53983
标准	-8.54005
q	-8.54454
获得	-8.54522
战	-8.54541
雨	-8.54932
朋友	-8.55127
医生	-8.55164
茶	-8.55681
是否	-8.55918
刘	-8.55966
易	-8.5597
九	-8.56099
费	-8.5658
有些	-8.5678
房	-8.56811
取	-8.56818
阳	-8.57172
工	-8.5726
玉	-8.57341
压	-8.57584
一起	-8.57892
发生	-8.57902
信	-8.58034
关	-8.58464
22	-8.58488
就会	-8.58746
单位	-8.59059
八	-8.59365
城市	-8.59558
疾病	-8.59579
百度经验	-8.59711
工程	-8.59722
销售	-8.59961
就可以	-8.60131
网站	-8.60144
文化	-8.60413
群	-8.60523
才能	-8.60582
社会	-8.60695
土	-8.6078
增加	-8.60791
笔	-8.60822
全国	-8.60877
村	-8.60942
七	-8.60963
尔	-8.60976
只要	-8.61016
合	-8.61108
远	-8.61109
调	-8.61298
国际	-8.61299
比如	-8.61518
春	-8.61777
且	-8.61789
罗	-8.61873
场	-8.61908
自动	-8.62048
希望	-8.62155
河	-8.62182
分析	-8.62486
—	-8.62502
听	-8.62537
一点	-8.62649
便	-8.62857
组织	-8.62864
雪	-8.62946
指导意见	-8.63012
空	-8.63051
查看	-8.63158
之前	-8.63171
常	-8.63414
值	-8.63531
节	-8.63554
提高	-8.63851
60	-8.64077
应用	-8.64493
行业	-8.64567
近	-8.64676
考试	-8.64704
谁	-8.64738
工具	-8.64781
制作	-8.64847
含	-8.64864
方面	-8.65033
宝宝	-8.65144
百	-8.65214
交	-8.65349
一直	-8.654
小时	-8.65529
根	-8.65537
梦	-8.65759
04	-8.65796
夜	-8.65801
树	-8.65821
全部	-8.66258
一种	-8.66293
购买	-8.66344
之一	-8.66399
最好	-8.66425
并且	-8.66507
布	-8.6657
毛	-8.66624
质量	-8.66927
每天	-8.67119
建	-8.6738
。3、	-8.67434
无法	-8.67508
完成	-8.67532
酒店	-8.67541
立	-8.67607
牛	-8.6761
古	-8.6772
灯	-8.6779
杨	-8.67873
经济	-8.67906
出来	-8.67974
下面	-8.67996
住	-8.68177
1、	-8.68415
来说	-8.68455
直	-8.6865
说明	-8.68705
分享	-8.68774
保护	-8.68861
两个	-8.68909
咨询	-8.68983
品	-8.6924
28	-8.69266
必须	-8.69373
正常	-8.69446
传	-8.69616
一定要	-8.69851
()	-8.7011
经常	-8.7022
经过	-8.70238
左右	-8.70291
03	-8.70331
结果	-8.70426
关注	-8.70745
当然	-8.70746
你们	-8.70964
补	-8.71319
班	-8.71542
申请	-8.71559
冷	-8.71628
落	-8.71672
微	-8.71717
世	-8.71725
收	-8.71728
基本	-8.71804
间	-8.71918
证	-8.71932
率	-8.72189
甚至	-8.72211
保持	-8.72248
养	-8.72309
z	-8.72351
教	-8.72401
系列	-8.72469
到了	-8.72487
称	-8.72597
结构	-8.72617
属于	-8.72657
代	-8.73074
接	-8.73132
穿	-8.73218
几	-8.73263
模式	-8.73516
://	-8.73572
套	-8.73594
喝	-8.73635
报	-8.73761
数据	-8.73949
电影	-8.74052
意	-8.74136
位置	-8.74141
人员	-8.74206
显示	-8.74345
擅长	-8.74653
特别	-8.74843
除了	-8.74845
具体	-8.74955
美国	-8.74989
帮助	-8.75045
大小	-8.75077
2017	-8.75225
投资	-8.75297
有限公司	-8.75309
沙	-8.75341
这里	-8.75487
掉	-8.75554
查询	-8.75605
音	-8.75966
装修	-8.75976
条件	-8.76
读	-8.76373
阿	-8.76397
u	-8.76422
越	-8.76516
任何	-8.76901
牌	-8.76922
剂	-8.76933
知道	-8.77076
--	-8.77102
作品	-8.77108
上的	-8.77112
差	-8.77307
达到	-8.77331
儿童	-8.77445
灵	-8.77619
的地方	-8.77667
角	-8.77765
找到	-8.778
食	-8.77946
小说	-8.7808
导致	-8.78148
局	-8.78329
的是	-8.78384
另外	-8.78392
完全	-8.78479
觉得	-8.78746
女性	-8.7877
骨	-8.788
果	-8.78849
也可以	-8.78859
鸡	-8.7889
话	-8.78904
洗	-8.78905
26	-8.78959
轻	-8.79128
里面	-8.79228
汤	-8.79316
那个	-8.79318
第二	-8.79382
千	-8.79503
精	-8.79545
室	-8.79686
妈妈	-8.79851
!”	-8.79921
格	-8.7994
跑	-8.8056
建设	-8.80747
继续	-8.80922
刀	-8.81007
详细	-8.81043
500	-8.8111
空间	-8.81145
桥	-8.81299
避免	-8.81421
件	-8.81583
之间	-8.81634
来自	-8.81654
2.	-8.82026
?”	-8.82132
脚	-8.82203
手术	-8.82204
刚	-8.82275
精神	-8.82355
言	-8.82459
准备	-8.82485
除	-8.82564
快速	-8.82729
卷	-8.82738
经验	-8.82832
(1)	-8.83096
词	-8.83465
音乐	-8.83691
都有	-8.83899
27	-8.84065
料	-8.84123
关系	-8.84149
为什么	-8.84317
200	-8.84423
伤	-8.8448
苏	-8.84487
体验	-8.84515
80	-8.84673
是什么	-8.84678
十	-8.84688
状态	-8.84756
厂	-8.84809
:1、	-8.84872
家庭	-8.84907
服	-8.84952
简单	-8.85075
拍	-8.85198
街	-8.85261
语	-8.85277
知	-8.85314
源	-8.85555
建筑	-8.8556
合作	-8.85684
歌	-8.85785
首先	-8.85789
商品	-8.85812
法律	-8.85827
均	-8.85858
不知道	-8.85973
可是	-8.85994
防	-8.86123
他的	-8.86238
真的	-8.86367
感染	-8.86444
客户	-8.86468
痛	-8.86475
修	-8.8652
保证	-8.86524
记	-8.86525
蓝	-8.86646
(0)	-8.86707
:0	-8.86709
银行	-8.86731
谢谢	-8.86838
解决	-8.86844
产生	-8.86924
提	-8.86962
园	-8.86968
讲	-8.87061
好的	-8.87212
容易	-8.87263
坐	-8.87338
看看	-8.87473
认为	-8.87487
酸	-8.87568
想要	-8.87646
文件	-8.87695
旅游	-8.87724
颜色	-8.87781
症状	-8.87784
:1	-8.87807
电子	-8.88067
配	-8.88205
小编	-8.88329
适合	-8.88362
费用	-8.88388
倒	-8.88409
冲	-8.88529
玩家	-8.88569
按照	-8.88817
段	-8.88846
病情分析	-8.88856
不好	-8.88905
万元	-8.88953
http	-8.89073
资源	-8.8908
武	-8.89178
结	-8.89287
价	-8.89311
步骤	-8.89313
商	-8.89321
啦	-8.89499
得到	-8.89507
是一种	-8.89583
研究	-8.89635
脸	-8.89894
05	-8.89903
更加	-8.89914
。2.	-8.8992
也有	-8.90133
考	-8.90173
首	-8.90179
02	-8.90304
人们	-8.90373
亲	-8.90381
排	-8.90492
绿	-8.90504
团	-8.90523
亚	-8.90561
组	-8.90807
联系	-8.90988
剑	-8.91022
刷	-8.91213
兰	-8.91223
离	-8.91234
利用	-8.91255
活	-8.91342
最近	-8.91412
那些	-8.91624
恢复	-8.91642
保	-8.91844
加入	-8.91882
女人	-8.91898
客	-8.91973
游	-8.92247
查	-8.92306
底	-8.92669
福	-8.92736
卖	-8.92804
别人	-8.92814
是一个	-8.92841
省	-8.92865
曾	-8.92933
切	-8.92993
最新	-8.92997
笑	-8.93041
波	-8.93084
业	-8.93131
方便	-8.93218
等等	-8.93269
丝	-8.93343
#	-8.93422
&	-8.93634
C	-8.93658
君	-8.93684
确定	-8.93762
破	-8.93769
综合	-8.93807
都会	-8.93887
引起	-8.93916
ta	-8.94084
任	-8.94108
味	-8.94151
造成	-8.94317
资料	-8.94371
08	-8.94633
以下	-8.94949
原因	-8.95048
纸	-8.95219
狗	-8.95256
杀	-8.95268
改	-8.95352
状	-8.95353
初	-8.95431
短	-8.95447
知识	-8.95448
技能	-8.95596
某	-8.95653
→	-8.95719
the	-8.95912
连接	-8.96022
加盟	-8.96245
拿	-8.96281
29	-8.96306
01	-8.96387
形	-8.96681
队	-8.96886
输入	-8.97003
有关	-8.97035
实现	-8.97115
版本	-8.97157
end	-8.97177
厂家	-8.97266
实	-8.97267
培训	-8.97322
往	-8.97367
块	-8.97371
曲	-8.97422
有点	-8.97476
算	-8.97742
男人	-8.97847
普通	-8.97967
冰	-8.98023
唐	-8.98111
散	-8.98223
圆	-8.98224
软	-8.9836
早	-8.98399
抗	-8.98453
题	-8.98552
分类	-8.9856
形成	-8.98683
广告	-8.9876
业务	-8.98762
思	-8.98776
语言	-8.98827
贵	-8.98972
药物	-8.98992
多少	-8.99216
注册	-8.99312
寒	-8.9934
景	-8.9935
减少	-8.99393
轮	-8.99467
章第	-8.99514
只能	-8.99526
田	-8.99561
办理	-8.99575
食物	-8.99657
。【	-8.99757
足	-8.9976
票	-8.99813
座	-8.99894
丽	-8.99961
完	-9.00132
j	-9.00154
代表	-9.00162
兵	-9.00349
速度	-9.00415
2016	-9.00439
十分	-9.00527
历史	-9.00574
移动	-9.00663
的问题	-9.00664
松	-9.00683
不可	-9.00715
解	-9.00784
诗	-9.00807
发布	-9.00856
怎样	-9.00937
较	-9.01035
反	-9.01091
货	-9.01097
甲	-9.01188
检测	-9.0129
院	-9.01341
苦	-9.0136
不断	-9.01616
广州	-9.01657
英语	-9.01715
衣	-9.0182
奇	-9.01904
个月	-9.01922
提升	-9.02114
官	-9.02164
环	-9.02165
日本	-9.02167
90	-9.02176
贴	-9.02274
键	-9.02377
提示	-9.02509
基	-9.0256
温	-9.02601
这么	-9.02712
随着	-9.029
'	-9.02911
简介	-9.02919
膜	-9.02997
英	-9.03132
这样的	-9.03165
参加	-9.03685
平时	-9.03717
公里	-9.03895
会员	-9.03899
考虑	-9.03908
故事	-9.03981
3.	-9.04091
的作用	-9.04235
后来	-9.04354
专家	-9.04366
汉	-9.04509
望	-9.04976
盐	-9.05032
液	-9.05141
运	-9.05397
调整	-9.05622
顶	-9.05625
300	-9.05631
机构	-9.05641
质	-9.05642
需	-9.06034
也会	-9.06119
乱	-9.06178
编辑	-9.06239
用于	-9.06268
在线	-9.06334
极	-9.06467
交易	-9.06468
权	-9.06588
水平	-9.066
素	-9.06623
东西	-9.06667
靠	-9.06695
宫	-9.06805
长期	-9.06812
湖	-9.06948
。4、	-9.0697
坚持	-9.06975
员	-9.07038
位于	-9.07081
广	-9.07091
国内	-9.07097
属	-9.07115
余	-9.07172
胶	-9.07258
细胞	-9.07268
决定	-9.07283
烟	-9.07309
夏	-9.07426
现	-9.0743
教学	-9.07538
彩	-9.07587
巴	-9.07614
升	-9.07707
存在	-9.07719
何	-9.07735
雅	-9.08152
雷	-9.08169
仙	-9.08299
阴	-9.08524
这一	-9.08552
食品	-9.08617
联	-9.08632
减肥	-9.08674
硬	-9.08772
秀	-9.08988
变化	-9.08993
)、	-9.09
科技	-9.09023
经营	-9.09056
猫	-9.09181
计划	-9.09222
亿	-9.09236
照	-9.0933
in	-9.0934
温度	-9.09378
每个	-9.09413
命	-9.09417
故	-9.09442
一定	-9.09518
超过	-9.0958
宁	-9.09598
亮	-9.09659
是不是	-9.09869
领	-9.09961
民	-9.09973
努力	-9.10248
留	-9.10346
交通	-9.10506
学院	-9.10507
床	-9.10606
苹果	-9.10625
价值	-9.10638
吴	-9.10707
的情况	-9.10721
银	-9.10747
教师	-9.10797
06	-9.10849
步	-9.10967
搭配	-9.11075
脑	-9.11212
针	-9.11328
声明	-9.11447
施工	-9.11536
博	-9.11653
还可以	-9.11656
志	-9.11744
反应	-9.11863
先生	-9.11948
责任编辑	-9.11996
糖	-9.12067
32	-9.12074
细	-9.12082
:1.	-9.12095
方向	-9.12124
07	-9.12134
然	-9.12144
加工	-9.12155
州	-9.12232
鬼	-9.12262
70	-9.12303
不用	-9.12464
答案	-9.12469
评论	-9.12487
归	-9.12494
赵	-9.12701
喜	-9.12706
记录	-9.12821
朝	-9.13026
如果你	-9.13036
空调	-9.13123
治	-9.13157
推	-9.13215
义	-9.13344
塔	-9.1355
呀	-9.13601
35	-9.13639
牙	-9.13697
一天	-9.13883
秋	-9.14016
作文	-9.14033
添加	-9.14085
职业	-9.14556
京	-9.14564
纯	-9.14741
及时	-9.14789
第三	-9.14833
跳	-9.14946
乡	-9.15003
端	-9.15143
cm	-9.15172
机械	-9.15214
待	-9.15217
密码	-9.15325
赞	-9.15357
影	-9.15498
父母	-9.15553
随	-9.15602
标签	-9.15614
不仅	-9.15699
钢	-9.15817
艺术	-9.1582
营养	-9.15846
人生	-9.15866
兴	-9.15924
尤其	-9.15972
结合	-9.16053
峰	-9.16123
赛	-9.16124
明显	-9.16125
一个人	-9.16205
晚上	-9.16209
。3.	-9.16234
视	-9.16327
鞋	-9.1646
烧	-9.16479
的方法	-9.16515
康	-9.16558
退	-9.16564
整个	-9.16576
圈	-9.16641
虎	-9.16909
不同的	-9.16935
令	-9.16965
派	-9.16971
目	-9.1699
产	-9.17031
接受	-9.17118
当时	-9.17169
您的	-9.17171
计算	-9.17433
正在	-9.17439
id	-9.17469
改变	-9.17476
维修	-9.17596
动作	-9.17613
卫生	-9.17837
严重	-9.17872
我是	-9.17994
有什么	-9.18007
让人	-9.18021
其它	-9.18027
错	-9.18161
我们的	-9.18168
母	-9.18227
左	-9.18228
如此	-9.18236
最终	-9.18366
据	-9.1838
收藏	-9.18457
过程中	-9.18584
维	-9.18688
任务	-9.18736
腿	-9.18793
玻璃	-9.18932
如果是	-9.18947
招	-9.19115
圣	-9.19177
幸福	-9.19361
症	-9.19396
名称	-9.19427
它的	-9.19436
野	-9.1975
刺激	-9.19919
地方	-9.20003
页	-9.20058
理	-9.20088
紫	-9.20099
些	-9.20137
盛	-9.20216
孔	-9.20271
放在	-9.20275
速	-9.20298
突然	-9.20378
总是	-9.20396
31	-9.20449
背	-9.20537
集团	-9.2055
深圳	-9.20555
办	-9.20625
对方	-9.2079
盖	-9.20888
性能	-9.20917
梦见	-9.20985
网上	-9.21058
人物	-9.21068
基础	-9.21177
断	-9.21244
宽	-9.21256
挂	-9.21378
佳	-9.21474
就能	-9.21589
目标	-9.21598
表现	-9.21656
爱情	-9.21731
时尚	-9.21778
齐	-9.21786
-11	-9.21798
课	-9.21887
证明	-9.21913
尽	-9.21968
交流	-9.2214
居	-9.22273
让你	-9.22349
秒	-9.22391
尾	-9.22399
倍	-9.22409
现代	-9.22416
折	-9.22446
测试	-9.22534
一切	-9.22569
开发	-9.22621
区域	-9.22624
压力	-9.22632
校	-9.22633
莫	-9.22712
旧	-9.2283
满足	-9.22875
永	-9.22907
梅	-9.22935
期间	-9.22956
耳	-9.22967
也不	-9.2306
to	-9.2309
佛	-9.2313
许多	-9.23162
45	-9.23169
降低	-9.23218
露	-9.23396
-12	-9.23468
搜索	-9.23494
让我	-9.23542
支付	-9.23593
科学	-9.23668
友	-9.2368
登录	-9.23712
试	-9.2375
魔	-9.23831
包装	-9.2392
猪	-9.2394
年龄	-9.23948
宋	-9.24015
的小	-9.24021
眼睛	-9.24203
上面	-9.24205
食用	-9.24218
智能	-9.24232
人的	-9.24244
堂	-9.24392
绝	-9.24417
毒	-9.24454
封	-9.2451
饮食	-9.24533
脱	-9.24734
轻松	-9.24734
山东	-9.24758
工业	-9.2485
翻	-9.24866
顺	-9.24988
标	-9.25135
川	-9.25162
特色	-9.25205
竹	-9.25533
船	-9.25616
整	-9.25678
相信	-9.2569
偏	-9.25808
存	-9.25933
扣	-9.2595
并不	-9.26103
现场	-9.26109
清洗	-9.26134
行为	-9.26229
植物	-9.2636
句	-9.26381
假	-9.26509
mb	-9.26675
cn	-9.26923
疼痛	-9.27054
动物	-9.27075
英雄	-9.27126
有效	-9.27129
一年	-9.27205
提问	-9.27207
面积	-9.27233
的东西	-9.27322
范围	-9.27332
临	-9.27365
氏	-9.27374
经验视频	-9.27402
给你	-9.2744
改善	-9.27467
胜	-9.27614
术	-9.277
湿	-9.27763
藏	-9.27792
看着	-9.27975
2015	-9.28038
升级	-9.28056
暗	-9.28057
下来	-9.28105
重新	-9.28111
篇	-9.28117
项	-9.28195
岛	-9.28239
规定	-9.28326
很好	-9.28525
吸	-9.28687
静	-9.28773
1000	-9.28788
舞	-9.28803
维生素	-9.28824
泰	-9.2897
夫	-9.29059
恩	-9.29071
实际	-9.29075
生命	-9.29182
煮	-9.29259
文章	-9.29278
未来	-9.29306
晚	-9.29354
女生	-9.29409
丁	-9.29475
快乐	-9.29482
谷	-9.2962
的时间	-9.29748
等级	-9.29786
凉	-9.29825
秦	-9.29889
过去	-9.29909
每次	-9.29978
回复	-9.30094
剧	-9.30133
在一起	-9.30134
念	-9.30182
失	-9.30201
享受	-9.30266
还要	-9.3031
瑞	-9.30353
36	-9.30381
需求	-9.30418
团队	-9.30444
免	-9.30481
手游	-9.30521
复	-9.30606
运行	-9.30632
不错	-9.30634
自由	-9.30662
过程	-9.30791
是指	-9.30794
铜	-9.30861
腰	-9.30915
占	-9.31004
箱	-9.3107
车辆	-9.31109
48	-9.31152
今年	-9.31177
贷款	-9.31263
鸟	-9.31292
伤害	-9.31313
×	-9.31371
支	-9.3139
给我	-9.31448
里的	-9.31595
”、“	-9.31668
以前	-9.3168
欢迎	-9.31705
帮	-9.3173
吉	-9.31761
礼	-9.31763
薄	-9.3188
官方	-9.31944
炎	-9.31966
照片	-9.31992
紧	-9.31993
400	-9.32101
码	-9.32204
计	-9.32374
通常	-9.32576
衣服	-9.32611
一条	-9.32725
投	-9.3275
表面	-9.32752
怕	-9.32829
界	-9.32913
有哪些	-9.3299
搜狐	-9.33005
神经	-9.33006
消费	-9.33079
备	-9.33095
会有	-9.33111
服用	-9.33178
士	-9.33227
几个	-9.333
有着	-9.33358
第一次	-9.33434
威	-9.33489
网友	-9.33656
课程	-9.33682
防止	-9.33689
注	-9.33703
奖	-9.33847
急	-9.33857
受到	-9.33889
丹	-9.3409
馆	-9.34198
参考	-9.34247
史	-9.34288
配合	-9.34403
传统	-9.34501
富	-9.34651
开启	-9.34687
在这里	-9.34731
零	-9.34841
帝	-9.34851
观	-9.3486
’	-9.34953
哥	-9.3502
理解	-9.35073
it	-9.35074
她的	-9.35137
带来	-9.35156
架	-9.35157
饭	-9.35172
枪	-9.3519
创新	-9.35293
(2)	-9.35411
-03	-9.35432
虫	-9.3544
促进	-9.35464
胡	-9.35537
no	-9.35542
主要是	-9.35546
全球	-9.35574
同学	-9.35608
制造	-9.35637
普	-9.35646
re	-9.35647
预防	-9.35687
ing	-9.35709
而是	-9.35776
训练	-9.35779
的一种	-9.35786
股	-9.35822
程	-9.3585
横	-9.35947
它们	-9.35973
观察	-9.3616
头发	-9.36189
引起的	-9.36219
大量	-9.3627
阶段	-9.36287
特点	-9.36323
负责	-9.36431
族	-9.36496
删除	-9.36599
有人	-9.36763
副	-9.36821
嘴	-9.36824
智	-9.36852
追	-9.36882
功	-9.36921
电池	-9.36956
-01	-9.36974
成本	-9.37068
重点	-9.37094
孙	-9.37138
作业帮用户	-9.37156
墙	-9.372
阳光	-9.3726
2000	-9.3728
遇到	-9.3729
泡	-9.37301
减	-9.37326
秒懂生活视	-9.3735
锁	-9.37391
认证	-9.37614
弄	-9.37743
蛋	-9.38049
共同	-9.38243
接触	-9.38265
报名	-9.38306
慢	-9.38367
家长	-9.38415
装饰	-9.38449
保障	-9.38475
直播	-9.3852
滑	-9.3857
蛇	-9.38573
于是	-9.38581
厚	-9.38617
身上	-9.38659
解释	-9.38711
大型	-9.3875
重庆	-9.38767
斗	-9.38783
39	-9.38787
梁	-9.3882
丰	-9.38855
哈	-9.38899
右	-9.38908
的原因	-9.38909
针对	-9.3893
环保	-9.38952
样	-9.38962
人体	-9.38966
库	-9.3902
白色	-9.39391
杯	-9.39429
广东	-9.39491
都可以	-9.39509
整体	-9.39563
洞	-9.39581
终于	-9.39633
怎么办	-9.39633
尺寸	-9.39653
胃	-9.39705
睡	-9.39706
肯定	-9.39708
么	-9.39733
我想	-9.39824
盒	-9.3984
不足	-9.39851
配置	-9.39937
不了	-9.40044
原料	-9.40134
侧	-9.40176
必	-9.4021
再次	-9.40213
文字	-9.40219
徐	-9.40259
象	-9.40309
金属	-9.40314
肌肤	-9.4042
绿色	-9.40427
的事情	-9.40506
晓	-9.40554
指导	-9.40572
800	-9.40573
距离	-9.40575
调节	-9.40644
谈	-9.40719
本人	-9.40734
风格	-9.40765
男性	-9.40773
播放	-9.40816
是一款	-9.40864
就要	-9.40878
屏幕	-9.40886
异	-9.40893
从而	-9.41049
墨	-9.41205
因素	-9.41426
如下	-9.41427
印	-9.41522
奥	-9.41555
生长	-9.41597
放入	-9.41598
异常	-9.41611
羊	-9.41634
%	-9.4177
现象	-9.4181
脂肪	-9.41844
怀孕	-9.41869
池	-9.42031
政策	-9.42032
win	-9.42085
型号	-9.42122
许	-9.42166
卫	-9.42196
仅	-9.42217
批发	-9.42264
时代	-9.42265
唱	-9.42339
守	-9.42355
38	-9.42385
报告	-9.42392
gb	-9.42404
2014	-9.42465
工艺	-9.4256
报价	-9.42591
优势	-9.42796
数量	-9.42817
瓶	-9.42841
很多人	-9.42914
评价	-9.42928
vip	-9.43015
形式	-9.43037
注意事项	-9.43045
2、	-9.43078
4.	-9.43092
保险	-9.43128
独	-9.43192
医	-9.43192
政府	-9.43199
肝	-9.43207
吸收	-9.43233
香港	-9.43258
密	-9.43417
有一个	-9.43435
热门	-9.43562
的感觉	-9.4359
重要	-9.43651
丰富	-9.43705
宜	-9.43708
程序	-9.43921
不到	-9.44005
回收	-9.44007
锅	-9.44012
怎么样	-9.44024
乳	-9.44088
33	-9.44097
戏	-9.44206
嘉	-9.44235
ss	-9.44298
相对	-9.4436
天气	-9.44421
全面	-9.44431
良	-9.44489
纳	-9.44585
消费者	-9.44656
宗	-9.4473
您好	-9.44731
插	-9.44762
案	-9.44806
虚	-9.44874
陆	-9.44944
苗	-9.44953
一张	-9.45001
主题	-9.45018
为主	-9.45138
到底	-9.45161
护	-9.45185
尤其是	-9.45204
户	-9.45251
吹	-9.4526
测	-9.45288
聚	-9.453
善	-9.45325
声音	-9.45374
的食物	-9.45441
」	-9.45609
发动机	-9.45649
鲜	-9.45669
甜	-9.45682
设	-9.45786
商家	-9.45822
天下	-9.45828
心理	-9.45894
还能	-9.45902
风险	-9.45962
最高	-9.45982
练	-9.45982
修改	-9.46043
面对	-9.46124
肌	-9.462
-07	-9.46243
挺	-9.4625
正式	-9.46355
数字	-9.46368
奶	-9.46392
仁	-9.46472
心里	-9.46577
怪	-9.46601
镜	-9.46611
抓	-9.46666
新闻	-9.46676
规格	-9.46676
信息发布平台	-9.46717
事业	-9.46743
核	-9.46805
粉丝	-9.46915
生物	-9.46972
创	-9.47057
搜狐号	-9.47106
确认	-9.47137
闻	-9.47153
物质	-9.47194
文观点仅代表作者本人	-9.47237
仅提供信息存储空间	-9.47246
顾	-9.47251
袋	-9.47294
中文	-9.47397
家具	-9.47415
红色	-9.47428
稳定	-9.47458
缘	-9.47474
耐	-9.47504
特殊	-9.47528
成绩	-9.47531
例如	-9.47563
应该是	-9.47619
技巧	-9.47847
培养	-9.4792
浏览	-9.47995
成都	-9.47996
的朋友	-9.48011
电视	-9.4808
然而	-9.48119
持续	-9.48152
欲	-9.48184
符合	-9.482
弹	-9.48235
屏	-9.48263
炒	-9.48293
结婚	-9.48427
弱	-9.48524
饰	-9.4853
借	-9.48547
不少	-9.48561
参与	-9.48595
补充	-9.48618
这次	-9.48704
朱	-9.48711
小学	-9.48744
习惯	-9.48832
末	-9.48871
不锈钢	-9.48875
灰	-9.48904
数学	-9.48907
胸	-9.48977
。5、	-9.49067
部门	-9.49249
仪	-9.49249
新的	-9.49324
启动	-9.49328
坏	-9.49385
擦	-9.49402
领导	-9.49414
我国	-9.49421
品质	-9.49502
分为	-9.49572
欧	-9.4958
涂	-9.49581
空气	-9.49602
供	-9.49668
有很多	-9.49715
更是	-9.4978
按摩	-9.49846
固定	-9.49984
人民	-9.49988
三个	-9.49996
规划	-9.50022
优	-9.50118
增	-9.50163
水果	-9.50179
一家	-9.50214
600	-9.5038
材质	-9.50459
安排	-9.50529
浅	-9.50541
互联网	-9.50605
可能是	-9.50711
是个	-9.5072
亦	-9.50865
鸡蛋	-9.50874
组合	-9.51038
员工	-9.51079
成长	-9.51113
你可以	-9.51169
论	-9.51307
。《	-9.51312
人类	-9.51396
界面	-9.51396
真正	-9.51411
程度	-9.51548
-02	-9.51594
排名	-9.51605
展	-9.51612
增强	-9.51684
救	-9.51694
党	-9.51737
歌曲	-9.51838
太阳	-9.51902
收入	-9.51996
商业	-9.52133
请问	-9.52196
此时	-9.5221
韩	-9.52246
久	-9.52251
经典	-9.5228
做好	-9.52333
最大的	-9.5238
多种	-9.52389
高速	-9.52425
掌握	-9.52447
农	-9.52617
就像	-9.52671
-08	-9.52724
味道	-9.52728
大全	-9.52732
尼	-9.52743
加强	-9.52855
方案	-9.52905
一只	-9.52937
执行	-9.52964
洛	-9.52977
珠	-9.53114
具	-9.53134
广场	-9.532
连续	-9.53312
宇	-9.53322
1.5	-9.53413
资讯	-9.53461
呈	-9.53486
》《	-9.53529
-06	-9.53546
好友	-9.53561
厘米	-9.53642
致	-9.5369
》、《	-9.53751
代理	-9.53806
好像	-9.53866
曾经	-9.53933
往往	-9.53956
多少钱	-9.53972
and	-9.54047
iphone	-9.54097
流量	-9.54103
感情	-9.54106
带着	-9.5414
伊	-9.54161
局部	-9.54194
经理	-9.54202
停	-9.54239
定制	-9.54267
塑料	-9.54273
分别	-9.54306
熟	-9.54346
不得	-9.5436
也就是	-9.54422
。。。	-9.54451
同参数产品	-9.54486
爆	-9.54545
凡	-9.54662
「	-9.54797
黑色	-9.54818
0.00	-9.54912
永远	-9.54957
淘宝	-9.55044
怀	-9.55085
列	-9.55093
肥	-9.55141
思想	-9.55159
42	-9.55294
戴	-9.55308
财	-9.55315
抽	-9.55333
姜	-9.5535
65	-9.55509
逐渐	-9.55544
联系人	-9.55546
64	-9.55555
有没有	-9.55637
清洁	-9.55645
建立	-9.55646
中间	-9.55686
天津	-9.55872
港	-9.55872
意见	-9.55894
打造	-9.55909
150	-9.55976
众	-9.55982
是由	-9.56112
爸爸	-9.5618
提醒	-9.56244
洋	-9.56252
页面	-9.56262
尿	-9.5633
控	-9.56332
保存	-9.56359
积极	-9.56479
室内	-9.56525
娱乐	-9.56621
凤	-9.56641
美食	-9.56693
立即	-9.56734
。4.	-9.56788
夹	-9.56808
我就	-9.56817
拍摄	-9.56959
文档	-9.56962
事情	-9.56972
修复	-9.56978
特别是	-9.56997
创业	-9.57032
慢慢	-9.5711
餐	-9.57115
>>2	-9.5715
钟	-9.57187
公园	-9.57201
体育	-9.57221
感冒	-9.57265
日期	-9.5731
回家	-9.57382
同样	-9.57417
森	-9.57516
休闲	-9.57529
名字	-9.57581
5.	-9.57583
狂	-9.57594
击	-9.57704
攻略	-9.57707
中医	-9.57748
载	-9.57774
电视剧	-9.57874
既	-9.57902
提前	-9.57961
困难	-9.58
磨	-9.58006
今	-9.58067
厅	-9.58171
优质	-9.5818
人才	-9.58223
变成	-9.58251
混	-9.58268
不需要	-9.58325
不知	-9.58353
皇	-9.5838
供应	-9.58468
:4	-9.5848
开关	-9.58576
进口	-9.58647
);	-9.58762
更换	-9.58788
喷	-9.58804
部位	-9.58816
属性	-9.58906
of	-9.58934
资金	-9.5905
毕竟	-9.59056
大概	-9.59127
哪	-9.59169
潮	-9.59179
南京	-9.59368
了一个	-9.59373
壁	-9.59386
有个	-9.59495
关闭	-9.59508
描述	-9.59538
er	-9.59583
考生	-9.59584
统一	-9.59617
合同	-9.59618
乘	-9.59641
附近	-9.59688
2013	-9.5969
37	-9.597
井	-9.59742
错误	-9.59778
来了	-9.59813
豆	-9.5986
造	-9.59865
泉	-9.59865
客服	-9.5987
肠	-9.59875
记者	-9.59929
即使	-9.59942
艾	-9.59977
购物	-9.60049
高级	-9.60133
背景	-9.60153
-05	-9.60157
ch	-9.60187
称为	-9.60212
专	-9.60223
值得	-9.60234
休息	-9.60235
迅速	-9.60249
额	-9.60357
查看更多	-9.60387
淡	-9.60501
须	-9.60538
并不是	-9.60545
冠	-9.60547
青年	-9.6055
se	-9.60625
邮箱	-9.6063
34	-9.6064
一位	-9.60666
铺	-9.60686
庄	-9.60728
肌肉	-9.60808
柳	-9.60877
最大	-9.60885
专业的	-9.60887
2012	-9.60941
超级	-9.60997
两人	-9.61098
高考	-9.61103
鲁	-9.61145
练习	-9.61189
这款	-9.61226
you	-9.61291
离开	-9.61298
感谢	-9.61312
粗	-9.61387
当前	-9.61402
雄	-9.61414
出血	-9.61434
杰	-9.61456
获取	-9.61459
定位	-9.6151
否则	-9.61547
尽量	-9.61551
99	-9.61582
is	-9.61612
恶	-9.61615
眉	-9.6162
要注意	-9.61697
ip	-9.61786
狼	-9.61856
塞	-9.61985
女孩	-9.62002
品种	-9.62072
出了	-9.62109
税	-9.62128
本站	-9.6218
托	-9.62199
第四	-9.62232
设施	-9.62258
说话	-9.62308
轴	-9.62357
河南	-9.62472
进一步	-9.62561
时期	-9.62625
服装	-9.62631
降	-9.62635
韩国	-9.62686
事件	-9.62694
出来的	-9.62726
是在	-9.62738
我要	-9.62747
比赛	-9.62749
调查	-9.62796
原来	-9.62798
助	-9.62834
对比	-9.62879
届	-9.62961
微博	-9.62997
抢	-9.63031
瓦	-9.63053
回来	-9.63211
电源	-9.63233
主演	-9.63239
府	-9.63351
谢	-9.63366
120	-9.63445
房屋	-9.63452
°	-9.63461
冬	-9.63466
ps	-9.63479
取得	-9.63482
ed	-9.63584
攻	-9.636
-1	-9.63645
信号	-9.63665
举	-9.63788
化学	-9.63806
认识	-9.63818
民族	-9.63878
sr	-9.63923
档	-9.63953
诺	-9.6404
独立	-9.64068
按钮	-9.64094
干燥	-9.64285
招聘	-9.64478
消息	-9.64499
施	-9.64682
动力	-9.64847
粒	-9.64891
理论	-9.64915
完美	-9.64954
58	-9.64955
感到	-9.64967
杆	-9.64982
消	-9.65038
泥	-9.65084
担心	-9.6509
好了	-9.65096
小区	-9.65142
角色	-9.65147
...(	-9.65214
尚	-9.65281
各类	-9.65284
来看	-9.65288
宣传	-9.65357
窗	-9.65382
儿子	-9.65389
暖	-9.65434
附	-9.6544
组成	-9.65452
贝	-9.65497
刺	-9.65506
射	-9.65552
自身	-9.65672
作业	-9.65693
感受	-9.65705
依	-9.65735
就可以了	-9.65748
演员	-9.65774
内部	-9.659
护理	-9.65908
西安	-9.65911
不够	-9.65917
工资	-9.65928
麦	-9.65978
一生	-9.65981
从事	-9.65992
形容	-9.66001
泽	-9.66018
攻击	-9.66042
引	-9.66043
55	-9.66117
这种情况	-9.66128
有了	-9.66148
地点	-9.66152
流程	-9.66217
52	-9.66281
太多	-9.66325
优惠	-9.66412
魂	-9.66436
优秀	-9.66485
迷	-9.66564
追求	-9.66644
表达	-9.6667
49	-9.66679
很难	-9.66679
主动	-9.66685
凯	-9.66698
装备	-9.66735
编	-9.6675
都能	-9.66751
政治	-9.6677
平均	-9.66816
鼻	-9.67222
适量	-9.67238
地图	-9.67275
哪些	-9.67327
一片	-9.67334
发布时间	-9.67363
展示	-9.67443
滴	-9.67477
实验	-9.67513
真是	-9.6768
柜	-9.677
营	-9.67752
麻	-9.67795
进去	-9.67803
摆	-9.67867
..	-9.68004
浮	-9.68026
当地	-9.68044
医学等领域	-9.68047
蒙	-9.68077
如果您需解决具体问题	-9.68096
柱	-9.681
确实	-9.68108
建议您详细咨询相关领域专业人士	-9.68115
青春	-9.68139
这时	-9.68141
经验内容仅供参考	-9.68171
医师	-9.6822
此外	-9.68247
杭州	-9.68281
获	-9.68308
不再	-9.68396
适用于	-9.68403
医学	-9.68409
领域	-9.68497
似	-9.68552
店铺	-9.6869
盆	-9.68737
很大	-9.68752
险	-9.68759
壳	-9.68775
成了	-9.68845
政	-9.68918
官网	-9.68919
专用	-9.68933
发育	-9.68936
力量	-9.68962
维护	-9.68978
胎	-9.6903
的发展	-9.69071
也要	-9.69075
格式	-9.69079
3、	-9.69098
全身	-9.69197
容	-9.69232
的效果	-9.69247
判断	-9.69275
或是	-9.693
号码	-9.69304
终	-9.69366
死亡	-9.69372
河北	-9.69383
医疗	-9.69414
瘦	-9.69426
元素	-9.69436
霜	-9.69487
哪个	-9.69528
净	-9.69553
输出	-9.69582
婚	-9.69669
楚	-9.6969
me	-9.69692
高度	-9.69701
艺	-9.69737
棉	-9.69741
记得	-9.69799
显	-9.69825
ml	-9.69894
含有	-9.6993
疼	-9.69942
的故事	-9.69947
总结	-9.70039
百度	-9.70054
co	-9.70118
自我	-9.70144
责任	-9.70146
季	-9.70182
通知	-9.70215
copyright	-9.70243
尖	-9.70254
惠	-9.70306
币	-9.7031
44	-9.70327
运用	-9.70361
可以用	-9.70411
物流	-9.70471
孕妇	-9.70472
实施	-9.70483
赞同	-9.70492
罪	-9.705
<	-9.70582
迪	-9.70587
节目	-9.70618
扬	-9.70669
意识	-9.70689
75	-9.7073
43	-9.70746
愿	-9.70783
举报邮箱	-9.70792
碎	-9.70865
有时	-9.70918
中央	-9.70932
呼吸	-9.70956
出去	-9.70972
还会	-9.71008
母亲	-9.71247
都要	-9.71291
一款	-9.71298
本页搜狗指南内容仅	-9.71303
溪	-9.7134
惊	-9.71356
结束	-9.71568
荣	-9.71667
本文	-9.71703
黄金	-9.71775
日常	-9.71794
炎症	-9.71891
登	-9.71914
肺	-9.71937
下去	-9.71953
肾	-9.71962
:30	-9.71976
江苏	-9.72023
房间	-9.72127
的情况下	-9.72155
郑	-9.72178
正确	-9.72211
砖	-9.7231
下降	-9.72383
高中	-9.7242
。”“	-9.72431
88	-9.72499
绝对	-9.72548
2011	-9.72556
祝您健康	-9.72578
合理	-9.72586
外观	-9.7271
故障	-9.72815
私	-9.72822
乌	-9.72876
哪里	-9.72915
移	-9.72944
最佳	-9.72955
处于	-9.7297
本身	-9.72973
推广	-9.7298
那样	-9.72995
应当	-9.73021
一边	-9.73047
:3	-9.73067
车型	-9.73176
‘	-9.73202
明星	-9.7324
积分	-9.73295
00	-9.73396
劳动	-9.73502
大部分	-9.73541
美丽	-9.73559
-04	-9.73589
我也	-9.73604
相当	-9.73623
产业	-9.73665
越来越	-9.73673
让我们	-9.73726
过来	-9.73732
商务	-9.73767
!!	-9.738
al	-9.73804
岩	-9.73832
美容	-9.73833
简	-9.73834
牛奶	-9.73841
索	-9.73847
锻炼	-9.73871
lv	-9.74012
汁	-9.74042
提出	-9.74061
校园	-9.74117
社区	-9.74118
:2013	-9.74177
加上	-9.74236
比例	-9.74255
限制	-9.7429
整理	-9.74424
燕	-9.74483
周边	-9.74517
世纪	-9.7463
的生活	-9.7464
沟通	-9.74651
也就	-9.74668
辅助	-9.7471
有的	-9.74736
认真	-9.74753
kg	-9.74756
账号	-9.74777
缓解	-9.74777
选项	-9.74779
金融	-9.74798
原创	-9.74859
所有的	-9.74872
紧张	-9.74883
填	-9.74915
隔	-9.74917
令人	-9.74932
无论	-9.74969
菌	-9.74971
美女	-9.75031
如今	-9.75031
两种	-9.75072
腹	-9.751
不限	-9.75181
2010	-9.75235
的方式	-9.7524
][	-9.75244
点评	-9.75266
女儿	-9.75279
不管	-9.75284
似乎	-9.75297
杂	-9.75347
年代	-9.75411
父亲	-9.75419
计算机	-9.75487
一旦	-9.75537
老人	-9.75858
农村	-9.75895
-10	-9.75992
缺	-9.75993
导演	-9.75994
丸	-9.76056
后面	-9.76078
:10	-9.76091
枝	-9.76157
运营	-9.76198
清楚	-9.76404
临床	-9.76412
各位	-9.76485
or	-9.76489
棒	-9.76495
还没有	-9.76523
变得	-9.7655
6.	-9.76564
已有	-9.76645
360	-9.76664
形象	-9.76666
至少	-9.76691
幼儿	-9.76715
机会	-9.76734
媒体	-9.76752
纹	-9.76779
夏天	-9.76846
多了	-9.76921
真实	-9.7695
失败	-9.76973
pc	-9.77018
浙江	-9.7702
的事	-9.77027
我觉得	-9.77035
也能	-9.77095
一段	-9.77144
wifi	-9.77162
中药	-9.77165
大道	-9.77193
不想	-9.772
采取	-9.77221
每日	-9.77227
混合	-9.77251
蔬菜	-9.77294
违法和不良信息举报电话	-9.77324
汗	-9.77352
坑	-9.77459
尘	-9.77484
忌	-9.77512
中学	-9.77539
看见	-9.7768
成熟	-9.77813
铝	-9.77822
颜	-9.77837
一份	-9.77844
剪	-9.77869
搞	-9.77888
之中	-9.77911
老公	-9.7796
希望对您有帮助	-9.78048
会计	-9.78114
家里	-9.78196
份	-9.7821
损伤	-9.78229
下午	-9.78251
斑	-9.78326
职	-9.78368
或者是	-9.78372
肿瘤	-9.78377
的位置	-9.78381
她们	-9.78422
暂无	-9.78437
京东	-9.78449
四川	-9.78452
到达	-9.78651
社	-9.78718
拼	-9.78732
蛋白质	-9.78733
47	-9.78735
配件	-9.78812
辣	-9.78826
很容易	-9.7889
祖	-9.7894
几乎	-9.78945
急性	-9.78953
地铁	-9.78959
莲	-9.78971
措施	-9.78978
漫画	-9.79004
势	-9.79011
便宜	-9.79041
投票	-9.79047
参数	-9.79121
直到	-9.79121
上传	-9.79166
平衡	-9.79174
屋	-9.79237
那种	-9.79277
剧情	-9.79314
72	-9.79322
严	-9.79345
病毒	-9.79404
历	-9.79415
意外	-9.79433
彻底	-9.79461
武汉	-9.79467
警	-9.79535
好评	-9.79572
遇	-9.79585
;2、	-9.79613
众多	-9.79622
寸	-9.79651
是因为	-9.79766
的一个	-9.79778
少年	-9.79823
体系	-9.79849
采	-9.79867
汇	-9.79868
be	-9.79914
导	-9.79995
漆	-9.80007
开展	-9.80022
以上是对	-9.8011
老板	-9.80175
湾	-9.80188
巨	-9.80215
成交	-9.80232
充电	-9.80303
妖	-9.80354
哭	-9.80355
无限	-9.80358
挑战	-9.80379
56	-9.80448
95	-9.80574
制度	-9.80577
的意思	-9.8058
体重	-9.80663
规范	-9.80742
仍	-9.80779
一场	-9.80782
这个问题的建议	-9.80818
效	-9.80818
保养	-9.80888
听到	-9.80899
并没有	-9.80937
上述	-9.80941
文明	-9.81092
小米	-9.81096
种植	-9.81124
垫	-9.81272
98	-9.81294
读书	-9.81303
登记	-9.81311
造型	-9.81328
周围	-9.81342
现实	-9.81342
持	-9.81348
表演	-9.81371
成分	-9.81376
伟	-9.81406
准	-9.81417
聊天	-9.81461
征	-9.81537
那就	-9.81546
欢	-9.81548
明确	-9.81552
人回复	-9.81562
女士	-9.81602
灭	-9.81649
睡眠	-9.81654
也没有	-9.81767
上了	-9.81772
68	-9.8179
纤维	-9.81831
防水	-9.81872
show	-9.82014
收费	-9.82056
上下	-9.82077
类别	-9.82113
干净	-9.82147
鼓	-9.8215
-10-	-9.82201
郑州	-9.82206
刚刚	-9.82245
确保	-9.82257
沈	-9.82326
联系电话	-9.82381
运输	-9.82405
行动	-9.8241
虾	-9.82446
接下来	-9.8249
略	-9.82535
预约	-9.82571
请您	-9.82594
娜	-9.82604
解答	-9.8266
预	-9.82673
mp	-9.82683
66	-9.82686
可爱	-9.82746
情绪	-9.82747
机场	-9.82836
填写	-9.82853
兄弟	-9.82903
犬	-9.82988
蒸	-9.83008
阴道	-9.83012
实力	-9.83032
争	-9.832
就在	-9.83202
研发	-9.83214
阵	-9.83289
都在	-9.83307
他们的	-9.83349
全新	-9.83382
天然	-9.83405
害	-9.83465
沟	-9.83478
男生	-9.83494
等待	-9.83496
探	-9.83554
航	-9.83568
\	-9.8365
色彩	-9.83653
武器	-9.83672
昌	-9.83683
寻找	-9.83707
!!!	-9.83721
寺	-9.83737
以为	-9.83756
时候	-9.83862
规模	-9.83866
扎	-9.83868
泪	-9.83883
庆	-9.83899
肩	-9.8391
台湾	-9.83942
慢性	-9.83992
de	-9.8402
洪	-9.84058
看了	-9.84108
期待	-9.8412
小孩	-9.84122
充分	-9.84176
英国	-9.84222
童	-9.84248
可能会	-9.84279
禁	-9.843
功效	-9.84312
病人	-9.84333
围	-9.84438
咖啡	-9.84448
旁	-9.8445
学会	-9.84491
开放	-9.84493
】:	-9.84524
伯	-9.84549
景区	-9.84563
吃饭	-9.84574
做到	-9.84613
战争	-9.84702
物理	-9.84703
创造	-9.84721
参	-9.84733
东方	-9.84751
锦	-9.84782
51	-9.84806
收到	-9.84843
钻	-9.84862
有时候	-9.84938
也很	-9.84969
一块	-9.84969
框	-9.84979
郭	-9.84999
经历	-9.85121
版权登记	-9.85143
曼	-9.85232
积	-9.85245
意义	-9.85295
豪	-9.8533
炉	-9.8533
新鲜	-9.85337
响	-9.85339
建议你	-9.85344
都不	-9.85407
顾客	-9.85442
链接	-9.8553
奖励	-9.85572
炮	-9.85756
评	-9.85764
来到	-9.85802
口味	-9.85823
机器	-9.85902
稍	-9.85906
成语	-9.85939
福利	-9.8595
领取	-9.85997
最好的	-9.85998
的样子	-9.86021
姓名	-9.86034
健康咨询平台	-9.86068
模	-9.86102
珠海健康云科技有限公司版权所有快速问医生	-9.86124
017418?	-9.86133
给予	-9.86158
lemma	-9.86232
残	-9.86237
icp	-9.86327
具备	-9.86453
证书	-9.86507
兽	-9.86539
的产品	-9.86599
很快	-9.86631
54	-9.8665
拔	-9.8668
病情	-9.86733
破坏	-9.86755
晋	-9.86767
邪	-9.86858
医院擅长	-9.86861
皆	-9.8687
相比	-9.86875
41	-9.86912
凌	-9.87027
投诉	-9.87036
基地	-9.87043
做的	-9.87127
患	-9.8714
心中	-9.87151
咬	-9.87153
覆盖	-9.87186
管道	-9.87212
丰富的	-9.87225
累	-9.87228
舒适	-9.87229
免责声明	-9.87237
开通	-9.87328
恒	-9.87331
用药	-9.87354
梦想	-9.87421
46	-9.87488
琴	-9.87516
颗粒	-9.87517
面前	-9.87631
未经许可	-9.87635
购	-9.87707
联系方式	-9.87734
莱	-9.87752
...[	-9.8779
健	-9.87825
年轻	-9.87867
贤	-9.87895
月份	-9.87896
差不多	-9.87898
劳	-9.87919
幼儿园	-9.87925
良好的	-9.87925
每年	-9.87926
开心	-9.87955
身份证	-9.88007
身边	-9.88016
晨	-9.88027
天天	-9.88226
账户	-9.88228
俊	-9.88268
也许	-9.88334
体内	-9.88385
不如	-9.88434
润	-9.88445
钙	-9.88547
办公室	-9.88557
教程	-9.88609
止	-9.88628
评分	-9.88649
2.5	-9.88652
还没	-9.88669
裤	-9.88682
特征	-9.8869
透	-9.88723
线路	-9.88743
承	-9.88764
最低	-9.88833
各个	-9.88853
吨	-9.88865
华为	-9.88884
息	-9.88887
敏	-9.88927
那里	-9.88947
马上	-9.89107
药品	-9.89188
之间的	-9.89259
含量	-9.89371
房子	-9.89378
留言	-9.8938
付	-9.89402
会议	-9.89406
虽	-9.8945
双方	-9.89471
高血压	-9.89473
烤	-9.89482
不太	-9.89501
芳	-9.8952
家人	-9.89521
不一样	-9.89552
循环	-9.8956
男女	-9.89613
人家	-9.89625
萌	-9.897
陵	-9.89746
充满	-9.89747
生存	-9.8977
展开	-9.89782
姓	-9.8982
今日	-9.89827
郎	-9.89843
十二	-9.89847
危险	-9.89869
适应	-9.89889
厨房	-9.89943
更新时间	-9.89963
胖	-9.90007
这就是	-9.90015
更好的	-9.90058
都没有	-9.90091
去了	-9.90203
氧	-9.90214
随时	-9.90231
面膜	-9.90244
抱	-9.90259
on	-9.90289
老婆	-9.90347
也可	-9.90378
敌	-9.90381
做了	-9.90408
依然	-9.90431
语文	-9.90479
吃了	-9.90514
垃圾	-9.90516
少女	-9.9062
htm	-9.90638
营销	-9.90664
人数	-9.90677
性的	-9.90682
多个	-9.9074
ly	-9.90771
酱	-9.90827
去除	-9.90877
血管	-9.90879
联合	-9.90882
平方米	-9.90887
版权所有	-9.90896
电动	-9.90934
父	-9.90936
尊	-9.90941
透明	-9.90988
用品	-9.91017
某些	-9.91072
个性	-9.91074
挑	-9.91079
懂	-9.91108
吐	-9.91168
缺乏	-9.91225
人气	-9.91285
地面	-9.91285
生态	-9.91291
{	-9.91324
满意	-9.9135
乔	-9.91419
摸	-9.91464
为你	-9.91497
面试	-9.91538
可以在	-9.91582
英文	-9.91582
测量	-9.91594
85	-9.91596
裂	-9.91629
:2018	-9.91635
android	-9.91677
青岛	-9.91754
信用卡	-9.91773
的价格	-9.91778
so	-9.91793
对象	-9.91809
斜	-9.91824
的内容	-9.91897
隆	-9.91968
唇	-9.9198
诊断	-9.91993
一句	-9.92003
萧	-9.92006
就有	-9.92069
房价	-9.92092
for	-9.92106
演	-9.92106
动态	-9.92116
的症状	-9.92157
打印	-9.92161
会出现	-9.92231
难以	-9.92264
构成	-9.9228
爽	-9.92284
突出	-9.92303
刻	-9.92319
桃	-9.9239
敢	-9.92443
红包	-9.92498
。6、	-9.9257
划	-9.92583
加热	-9.92643
过了	-9.9265
才是	-9.92693
疗效	-9.92713
消除	-9.92721
甘	-9.92736
月经	-9.92785
嫩	-9.92798
包含	-9.92818
顺利	-9.92833
th	-9.92875
相同	-9.92907
保健	-9.92915
勤	-9.92949
咳嗽	-9.92966
比喻	-9.92984
犯	-9.93068
餐厅	-9.93086
腾	-9.93095
沉	-9.93096
人工	-9.93138
闪	-9.93145
腾讯	-9.93181
增长	-9.93245
规则	-9.93255
看起来	-9.93268
家居	-9.933
he	-9.93331
目的	-9.93333
优化	-9.9339
道路	-9.93393
杜	-9.934
熊	-9.93432
支付宝	-9.93477
(3)	-9.93531
谢绝转载	-9.93546
行驶	-9.93561
委	-9.93569
例	-9.93612
洁	-9.93636
3000	-9.93659
的声音	-9.93672
”“	-9.93725
心情	-9.93755
玩法	-9.93793
司	-9.93833
嘛	-9.93845
四个	-9.9397
细节	-9.93978
要是	-9.9398
ro	-9.94018
宠	-9.94028
益	-9.94032
比较好	-9.94085
核心	-9.94108
留下	-9.94147
提交	-9.94177
至于	-9.94213
排行榜	-9.94223
麻烦	-9.94284
多次	-9.94294
安卓	-9.9438
好好	-9.94398
还在	-9.94449
概	-9.94449
男子	-9.9445
均匀	-9.94487
咨询描述	-9.94585
敬	-9.94587
销	-9.94597
贷	-9.94659
53	-9.94728
你要	-9.94758
蛋白	-9.94767
古代	-9.94768
韵	-9.9479
做出	-9.94794
旅行	-9.94795
快递	-9.94797
画面	-9.948
本科	-9.94801
宠物	-9.94861
浓	-9.94885
子宫	-9.94893
飘	-9.94904
忠	-9.94932
粘	-9.94938
文学	-9.94947
110	-9.95009
反复	-9.95054
物品	-9.95085
飞机	-9.951
发出	-9.95153
led	-9.95164
大约	-9.95172
乙	-9.95222
性格	-9.95264
公告	-9.95389
使得	-9.9541
翻译	-9.95447
细菌	-9.95465
诚	-9.95491
办法	-9.95493
曰	-9.9556
工厂	-9.95571
尝试	-9.95618
欣赏	-9.95636
废	-9.95651
放心	-9.95698
本篇经验系本人依照真实经历原创	-9.95748
成人	-9.95771
的影响	-9.95791
)(	-9.95833
才会	-9.95839
检	-9.95891
不清楚	-9.95911
one	-9.95919
适当	-9.95929
动漫	-9.95935
资	-9.95968
依据	-9.95988
漂亮	-9.96033
良好	-9.96065
回到	-9.96098
斤	-9.96118
勒	-9.96167
以免	-9.96196
link	-9.96213
资格	-9.96221
一致	-9.96227
传播	-9.96266
德国	-9.96289
停止	-9.96313
拖	-9.96331
泵	-9.96342
败	-9.96352
觉	-9.96423
鼠	-9.96455
(1	-9.96498
html	-9.96604
之外	-9.96719
舍	-9.96781
金额	-9.96786
劲	-9.96792
关节	-9.96794
好看	-9.96836
糖尿病	-9.96843
毕业	-9.96901
阀	-9.96914
大师	-9.9692
2008	-9.96951
炸	-9.96977
电压	-9.96996
讨论	-9.97028
花园	-9.9714
取消	-9.97167
pe	-9.97175
自行	-9.97212
有所	-9.97219
的重要	-9.97237
辉	-9.97263
le	-9.9728
血液	-9.97355
。5.	-9.97407
发挥	-9.97408
次分享第	-9.97413
幼	-9.97433
庭	-9.97441
赚钱	-9.9746
固	-9.97473
魏	-9.97479
0.5	-9.9752
女子	-9.97558
而言	-9.97568
公主	-9.97603
顿	-9.97612
观众	-9.97626
尺	-9.97653
不宜	-9.97664
记忆	-9.97801
艳	-9.97814
刮	-9.97834
碰	-9.97851
早期	-9.97936
竟然	-9.97945
my	-9.97965
悦	-9.97968
网址	-9.98022
观看	-9.98077
龄	-9.9813
婴儿	-9.98144
内存	-9.98159
暴	-9.98254
矿	-9.98264
楼主	-9.98354
鸣	-9.98421
障碍	-9.98432
闹	-9.98474
浩	-9.98518
ma	-9.98525
摇	-9.98527
辰	-9.98551
复杂	-9.98616
祥	-9.98629
可以通过	-9.98687
闲	-9.98776
寻	-9.98788
签	-9.98791
口服	-9.98794
区别	-9.98817
战斗	-9.98926
脂	-9.98935
沿	-9.9895
缝	-9.98968
追问	-9.99012
不良	-9.99086
忙	-9.99161
清理	-9.99193
集中	-9.99218
饼	-9.9923
掌	-9.9929
律师	-9.99294
很好的	-9.99318
鸿	-9.99326
▁?2018	-9.9935
学历	-9.9937
4、	-9.99371
伦	-9.99469
是什么意思	-9.99473
的工作	-9.99501
距	-9.99507
消失	-9.99522
成立	-9.99524
流行	-9.99559
性生活	-9.99609
恨	-9.99623
赤	-9.9963
晴	-9.99631
浪	-9.99656
合成	-9.99657
不然	-9.99671
接着	-9.99696
雾	-9.99724
都市	-9.99747
更多的	-9.99764
唯一	-9.9981
频道	-9.99816
180	-9.99825
碧	-9.99885
7.	-9.99907
负	-9.99975
性质	-9.99989
租	-10.0012
敏感	-10.0019
砂	-10.0021
农业	-10.0025
娘	-10.0025
饮	-10.0026
适用	-10.0026
挡	-10.0028
试验	-10.0033
啥	-10.0034
登陆	-10.0036
一般是	-10.0036
超市	-10.0036
。1、	-10.004
at	-10.0041
让他	-10.0045
告诉	-10.0046
睡觉	-10.0047
一个月	-10.0047
装置	-10.0048
蓝色	-10.0059
著	-10.0062
智慧	-10.0063
买了	-10.0065
辛	-10.0066
简单的	-10.0067
怒	-10.008
搜	-10.0081
互动	-10.0084
宝贝	-10.0085
偷	-10.0088
影视	-10.0088
湖南	-10.0092
就业	-10.0093
总部	-10.0095
类似	-10.0101
罐	-10.0102
授权	-10.0108
醉	-10.0108
春天	-10.0108
激光	-10.0109
吸引	-10.0114
不敢	-10.0117
5000	-10.0119
巧	-10.0121
餐饮	-10.0121
常见的	-10.0122
加速	-10.0122
舒	-10.0131
能量	-10.0137
王者荣耀	-10.0137
订单	-10.0138
振	-10.0144
穿越	-10.0144
不行	-10.0146
渣	-10.0147
牙齿	-10.0149
充	-10.0149
st	-10.0151
拜	-10.0162
实践	-10.0165
旺	-10.0168
扫	-10.0169
鸭	-10.017
ai	-10.0171
坡	-10.0183
举报	-10.0185
链	-10.0186
客户端	-10.0191
常用	-10.0192
用来	-10.0197
大众	-10.0199
面部	-10.0208
穴	-10.0209
平米	-10.0213
推出	-10.0214
***	-10.0217
景点	-10.0219
;3、	-10.0222
赚	-10.0227
手表	-10.0228
够	-10.0235
返回搜狐	-10.0245
楼盘	-10.0247
夫妻	-10.0249
公共	-10.0253
恋	-10.0257
酷	-10.026
诚信	-10.0265
调理	-10.0266
每一个	-10.0267
而已	-10.0269
风水	-10.0271
城区	-10.028
最多	-10.0281
用途	-10.0287
相互	-10.0288
出现了	-10.0294
宣	-10.0302
地球	-10.0304
86	-10.0305
的同时	-10.0308
生活中	-10.0311
审核	-10.0314
84	-10.0316
做法	-10.0318
痛苦	-10.032
也不会	-10.0325
拆	-10.0326
苏州	-10.0329
后期	-10.0334
:15	-10.0337
规律	-10.0342
染	-10.0344
亭	-10.036
主角	-10.036
云南	-10.0361
寿	-10.0362
2009	-10.0362
广泛	-10.0367
地板	-10.0373
敌人	-10.0375
完善	-10.0376
种子	-10.0382
实用	-10.039
羽	-10.0392
准确	-10.0395
帅	-10.0395
我在	-10.0397
过敏	-10.0403
状况	-10.0403
指数	-10.0404
思考	-10.0404
冰箱	-10.0405
癫痫	-10.0414
创意	-10.0415
痒	-10.0419
59	-10.0421
脉	-10.0423
著名	-10.0429
伴	-10.0431
无需	-10.0433
一层	-10.0435
舌	-10.0437
水泥	-10.0439
闭	-10.0442
二手	-10.0443
效率	-10.0444
pro	-10.0445
出发	-10.0445
:《	-10.0447
放弃	-10.0448
弯	-10.045
大多数	-10.045
广大	-10.045
创建	-10.0459
婚姻	-10.0463
一定的	-10.0473
保温	-10.0476
69	-10.0477
微信公众号	-10.0477
指南	-10.0481
高端	-10.0482
宏	-10.0483
现在的	-10.0487
暂时	-10.0491
论坛	-10.0494
筒	-10.0496
驱动	-10.0499
般	-10.0502
题目	-10.0503
三年	-10.0504
主治医师	-10.0506
污染	-10.0519
78	-10.052
消耗	-10.0526
置	-10.0531
关心	-10.0533
吊	-10.0535
土地	-10.0535
:5	-10.0539
凭	-10.0545
li	-10.0546
消化	-10.0549
word	-10.0549
招生	-10.0549
一名	-10.0551
口腔	-10.0554
兔	-10.0554
高清	-10.0559
冬天	-10.0567
美丽的	-10.0567
路线	-10.0568
1.0	-10.057
走了	-10.057
菲	-10.0571
浏览器	-10.0574
---	-10.0577
诸	-10.0577
氧化	-10.058
滚	-10.0601
:13	-10.0602
蜜	-10.0603
审	-10.0604
发表	-10.0606
妈	-10.0615
漏	-10.0617
随便	-10.0618
注射	-10.0618
一件	-10.062
态度	-10.0621
正确的	-10.0626
强度	-10.0629
发行	-10.0636
姐	-10.0636
遍	-10.0637
录	-10.0637
夏季	-10.064
胆	-10.0641
ac	-10.0641
as	-10.0642
办公	-10.0643
复合	-10.0643
电机	-10.0643
}	-10.0644
8.	-10.0649
喂	-10.0653
妆	-10.0657
5%	-10.0657
go	-10.0659
难度	-10.0663
当中	-10.0667
严格	-10.0672
人阅读	-10.0673
小儿	-10.0683
标志	-10.0687
济	-10.0688
几天	-10.0692
新款	-10.0701
过多	-10.0708
基金	-10.071
将会	-10.0714
57	-10.0719
鉴定	-10.0721
驾驶	-10.0723
你是	-10.0726
柔	-10.0726
谋	-10.0727
来的	-10.0734
则是	-10.0735
当天	-10.0736
壮	-10.0738
成员	-10.074
的大	-10.0742
???	-10.0744
身份	-10.0744
工作人员	-10.0747
洲	-10.075
短信	-10.075
失去	-10.0753
明白	-10.0755
务	-10.0755
更好	-10.0756
弹幕	-10.076
乎	-10.0761
92	-10.0762
安卓版	-10.0764
批	-10.0773
榜	-10.0773
93	-10.0773
97	-10.0774
一颗	-10.0776
玄	-10.0778
革命	-10.078
在此	-10.0786
桶	-10.0787
皇帝	-10.0787
即将	-10.0788
小型	-10.079
过度	-10.079
生成	-10.0793
无线	-10.0796
~~	-10.0799
临床执业医师	-10.0808
:00	-10.0814
明天	-10.0818
重视	-10.0821
重量	-10.0827
及其	-10.0835
94	-10.0845
纪	-10.085
xx	-10.0852
勾	-10.0853
理念	-10.0854
。——	-10.0856
成就	-10.0857
63	-10.0857
真正的	-10.0857
医生回答	-10.0859
赶	-10.0862
收集	-10.0864
栏	-10.0865
化妆品	-10.0866
或许	-10.0866
共享	-10.0869
设定	-10.087
辞	-10.0873
we	-10.0875
鹿	-10.0878
制品	-10.0879
手动	-10.0884
拒绝	-10.0889
精华	-10.0891
人群	-10.0892
选用	-10.0901
重复	-10.0902
扫描	-10.0903
我们邀请	-10.0903
后的	-10.091
访问	-10.0911
站在	-10.0914
innerlink	-10.0915
以来	-10.0917
mo	-10.0919
手指	-10.092
去年	-10.0921
狗狗	-10.093
臣	-10.0935
瞬间	-10.0935
上网	-10.0938
专门	-10.0939
通用	-10.0949
妙	-10.0952
这个问题	-10.0954
承担	-10.0955
也没	-10.0957
曹	-10.0959
希	-10.096
育	-10.0969
臂	-10.097
统计	-10.0971
境	-10.0978
膏	-10.0978
机关	-10.0981
:2	-10.0985
清晰	-10.0986
身高	-10.0991
出口	-10.1003
第一个	-10.1003
ssc	-10.101
手机号	-10.1014
显得	-10.1017
复制	-10.1018
理想	-10.1019
热线	-10.1024
年度	-10.1025
中华	-10.103
原理	-10.103
赶紧	-10.1035
跨	-10.1035
报道	-10.1045
消毒	-10.1051
妇科	-10.1053
前面	-10.1054
蜂蜜	-10.1055
隐	-10.1056
语音	-10.1062
89	-10.1065
常常	-10.1066
62	-10.107
铁路	-10.1078
范	-10.108
模拟	-10.1088
在这	-10.1091
输	-10.1092
??2017	-10.1095
!?	-10.1096
功率	-10.1103
出处	-10.1107
分布	-10.1108
较大	-10.1108
摩	-10.1112
动画	-10.1115
目录	-10.1115
碗	-10.1121
黄色	-10.1128
玛	-10.1129
手机版	-10.1139
发热	-10.114
相应的	-10.1144
订	-10.1144
股票	-10.1147
定期	-10.1149
喊	-10.1154
关键	-10.1162
焦	-10.1172
2.0	-10.1173
种类	-10.1176
......”	-10.1177
认	-10.1178
法国	-10.1182
无论是	-10.1191
公交	-10.1191
烂	-10.1195
损失	-10.1195
电流	-10.1196
旗	-10.1199
估计	-10.12
250	-10.12
煎	-10.1203
安徽	-10.1207
》:“	-10.1208
:18	-10.1215
可见	-10.1217
清除	-10.1218
谱	-10.122
识别	-10.1221
行政	-10.1225
的孩子	-10.1225
第五	-10.1227
引发	-10.1228
接近	-10.1229
有得	-10.1233
周期	-10.1236
为您	-10.1239
葱	-10.1243
不可能	-10.1243
什么是	-10.1246
citiao	-10.1248
协议	-10.1249
抹	-10.1249
相似	-10.1253
一把	-10.1255
荒	-10.1256
放松	-10.1262
休	-10.1262
是谁	-10.1262
鼎	-10.1263
始终	-10.1268
分泌	-10.1269
欧洲	-10.1274
水分	-10.1281
事故	-10.1283
建议您	-10.1283
生理	-10.1283
岗	-10.1285
一套	-10.1291
岭	-10.1292
没什么	-10.1296
养殖	-10.1302
下列	-10.1304
鑫	-10.1307
人赞同了该回答	-10.1311
。(2)	-10.1312
接口	-10.1319
白天	-10.1321
多久	-10.1322
娇	-10.1327
的好	-10.1328
想到	-10.1332
导航	-10.1338
是可以	-10.1338
公斤	-10.1341
孕	-10.1345
利润	-10.1347
桑	-10.1348
愿意	-10.1349
仓	-10.135
原则	-10.1351
实时	-10.1352
上市	-10.1354
常见	-10.1356
精彩	-10.1356
丑	-10.136
:20	-10.1362
-2	-10.1363
塘	-10.1368
隐藏	-10.1372
74	-10.1374
96	-10.1375
分子	-10.1377
离婚	-10.1379
最新章节	-10.1384
妇女	-10.1384
里面的	-10.139
本地	-10.139
:50	-10.1391
61	-10.1396
我有疑问	-10.1399
舞蹈	-10.1402
说的	-10.1403
奔	-10.1408
寄	-10.1408
所谓	-10.1409
很少	-10.1411
旋转	-10.1414
窝	-10.1414
人口	-10.142
粥	-10.1425
凶	-10.1425
已投票	-10.1426
女主	-10.1427
轩	-10.1429
继	-10.143
至今	-10.1435
霞	-10.1436
一周	-10.144
根本	-10.1444
可用	-10.1445
录取	-10.1452
逼	-10.1452
检验	-10.1453
多年	-10.1454
聊	-10.1457
出行	-10.1464
朗	-10.1465
死了	-10.1466
发货	-10.1472
什么时候	-10.1473
哥哥	-10.148
套装	-10.1482
投入	-10.1489
延	-10.1494
广西	-10.1496
同学们	-10.1497
融	-10.1498
禁止	-10.1502
居然	-10.1505
筋	-10.1509
十五	-10.1515
渠道	-10.1517
激素	-10.1518
肚子	-10.1521
拍照	-10.1523
试试	-10.1524
如果有	-10.1524
长沙	-10.153
高温	-10.1531
混凝土	-10.1532
平安	-10.1532
长度	-10.1534
御	-10.154
在于	-10.154
es	-10.1543
挖	-10.1553
网页	-10.1557
同步	-10.1557
公开	-10.1559
用的	-10.156
帽	-10.157
套餐	-10.1572
有利于	-10.1574
腹部	-10.1575
73	-10.158
减轻	-10.158
震	-10.1582
昨天	-10.1585
记住	-10.1585
抑制	-10.1592
撒	-10.1593
消防	-10.1596
当你	-10.1596
兼	-10.1614
图标	-10.1615
气体	-10.1616
2007	-10.1618
东北	-10.1618
烫	-10.1619
家族	-10.1626
学员	-10.1627
启	-10.1628
看过	-10.1631
就算	-10.1632
藤	-10.1638
67	-10.164
那是	-10.1643
串	-10.1649
猜	-10.1657
搭	-10.1661
徒	-10.1661
窗口	-10.1666
姑娘	-10.1673
容量	-10.1676
早上	-10.1676
给大家	-10.1677
陶	-10.1677
前后	-10.1677
如果您	-10.1678
己	-10.1682
情感	-10.1685
:2017	-10.169
梨	-10.169
熟悉	-10.17
sh	-10.1706
一级	-10.1706
浪漫	-10.1707
轻轻	-10.1711
爬	-10.1714
游客	-10.1715
资质	-10.1717
见到	-10.1718
济南	-10.1723
渡	-10.1724
拼音	-10.1725
男孩	-10.1729
限	-10.1731
阴茎	-10.1732
害怕	-10.1733
幽	-10.1736
开机	-10.1738
创作	-10.1739
的功效	-10.174
健身	-10.1744
就不	-10.1747
一声	-10.1747
看来	-10.175
愁	-10.1756
跟着	-10.1757
报考	-10.176
蛋糕	-10.1761
维持	-10.1762
醋	-10.1766
亿元	-10.177
-15	-10.1774
缩	-10.1774
歌手	-10.1778
申	-10.1778
他人	-10.1779
歌词	-10.178
首页	-10.1781
?”“	-10.1782
邦	-10.1783
居民	-10.1787
长时间	-10.179
次数	-10.1791
霍	-10.1791
net	-10.1792
孤	-10.1795
温暖	-10.1796
出生	-10.1802
大厦	-10.1808
不但	-10.1813
-3	-10.1818
次浏览	-10.1819
为您提供	-10.182
日面议	-10.1822
液体	-10.1825
姐姐	-10.1827
**	-10.1828
大家都	-10.1829
代码	-10.183
专科	-10.1834
呵呵	-10.1836
呼	-10.1836
径	-10.1837
76	-10.1838
传奇	-10.1846
它是	-10.1846
这类	-10.1847
多吃	-10.1848
的要求	-10.1848
代谢	-10.1848
发送	-10.1848
租赁	-10.1848
撞	-10.1849
高效	-10.1852
翼	-10.1855
桌	-10.1861
ic	-10.1863
晶	-10.1867
两次	-10.1872
不住	-10.1873
街道	-10.1873
双手	-10.1874
的名字	-10.188
客厅	-10.1881
诊	-10.1884
ne	-10.1884
协会	-10.1884
txt	-10.1886
的主要	-10.1889
庙	-10.1891
当年	-10.1891
弦	-10.1892
猛	-10.1897
仔细	-10.1898
了很多	-10.1899
突破	-10.1902
仅供参考	-10.1903
小姐	-10.1904
牛肉	-10.1907
随意	-10.1907
指标	-10.1909
脸上	-10.191
沈阳	-10.1911
制定	-10.1912
养生	-10.1916
在哪里	-10.1916
先进	-10.192
近日	-10.1923
口感	-10.1924
叫做	-10.1925
浆	-10.1927
不易	-10.1933
改革	-10.1933
和谐	-10.1936
玫瑰	-10.1941
冬季	-10.1942
广东省	-10.1944
87	-10.1953
垂	-10.1955
火车站	-10.1957
邀请	-10.1962
-18	-10.1965
字数	-10.1967
幕	-10.197
主营产品	-10.1971
席	-10.1972
强大的	-10.1976
主人	-10.1977
手段	-10.1983
第一百	-10.1984
互相	-10.1988
mg	-10.1995
解析	-10.2
悲	-10.2005
山西	-10.2008
给他	-10.201
体质	-10.2019
柏	-10.2021
祝	-10.2031
涨	-10.2032
83	-10.2036
不大	-10.2037
的关系	-10.2038
密封	-10.2041
互	-10.2043
正是	-10.2044
0.1	-10.2046
1.2	-10.205
坐在	-10.2051
之类的	-10.2053
便秘	-10.2065
孩子的	-10.2068
雕	-10.2069
玉米	-10.2072
栋	-10.2074
绕	-10.2079
初中	-10.208
萨	-10.2082
别墅	-10.2083
▁vip	-10.2088
危害	-10.209
的做法	-10.2091
又是	-10.2106
倾	-10.2107
人均	-10.2107
玩具	-10.2108
大于	-10.2115
重生	-10.2123
奉	-10.2123
朋友圈	-10.2124
你就	-10.2128
意思	-10.213
精品	-10.2133
学科	-10.2134
误	-10.2135
大学生	-10.2139
竞争	-10.2143
塑	-10.2143
福建	-10.215
地下	-10.2152
深入	-10.2154
森林	-10.2159
全程	-10.2163
忍	-10.2176
ti	-10.2181
供参考	-10.2182
队伍	-10.2188
病变	-10.219
完整	-10.2196
释放	-10.2199
体检	-10.2203
独特的	-10.2207
另	-10.2207
la	-10.2211
注重	-10.2213
豆腐	-10.2214
龟	-10.2215
温馨提示	-10.2217
传说	-10.2218
生意	-10.222
我家	-10.2221
时光	-10.2225
不适	-10.2228
天地	-10.2228
仍然	-10.224
美观	-10.224
晒	-10.2243
踩	-10.2245
凝	-10.2249
电器	-10.225
の	-10.2252
手工	-10.2253
na	-10.2255
》(	-10.2257
公路	-10.226
91	-10.2263
涉及	-10.2263
鼓励	-10.2265
饮料	-10.2269
反映	-10.2273
钓	-10.2276
77	-10.2285
编号	-10.2285
ios	-10.2291
影片	-10.23
键盘	-10.2301
一道	-10.2302
2006	-10.2303
三星	-10.2304
态	-10.2305
角度	-10.2308
陪	-10.2312
岗位	-10.2319
齿	-10.2324
酶	-10.2326
贺	-10.2326
思维	-10.2326
宅	-10.2333
扶	-10.2333
热情	-10.2334
珍	-10.2336
无数	-10.2339
买的	-10.2345
拿到	-10.2346
脏	-10.2349
芯	-10.2351
心脏	-10.2358
迎	-10.236
现金	-10.2361
百姓健康网	-10.2361
听说	-10.2362
插入	-10.2363
辣椒	-10.2366
en	-10.2373
普遍	-10.2377
转载	-10.238
82	-10.238
难道	-10.2381
岁的	-10.2382
酒精	-10.2383
信用	-10.2386
高压	-10.2387
非常好	-10.239
季节	-10.2392
lo	-10.2395
排除	-10.2396
另一	-10.2397
洗净	-10.2399
过的	-10.24
号线	-10.2405
兴奋	-10.2407
硬件	-10.241
妻	-10.2412
浓度	-10.2415
习	-10.2419
外科	-10.2419
这位	-10.242
一般来说	-10.2421
却是	-10.2421
概念	-10.2422
手续	-10.2424
最好是	-10.2433
没有什么	-10.2434
ie	-10.2435
配套	-10.2436
:12	-10.2443
随后	-10.2443
我会	-10.2448
齐全	-10.2448
了吧	-10.2449
收获	-10.2451
标题	-10.2453
发病	-10.2454
一路	-10.2456
图案	-10.2458
妻子	-10.2459
一段时间	-10.2461
仿	-10.2463
稀	-10.2469
骂	-10.2474
尽管	-10.2476
基本上	-10.2476
孝	-10.2479
燃烧	-10.2482
财富	-10.2482
回忆	-10.2486
国外	-10.2492
形态	-10.2492
发型	-10.2493
进步	-10.2494
700	-10.2496
可以选择	-10.2499
5、	-10.2502
俩	-10.2503
炖	-10.2507
科目	-10.2508
大陆	-10.2518
79	-10.2521
新疆	-10.2522
分离	-10.2525
教授	-10.2529
头像	-10.2529
有一定的	-10.2531
这个时候	-10.2532
前往	-10.2532
反而	-10.2537
稿	-10.2539
商标	-10.2539
人士	-10.2545
性价比	-10.2547
恋爱	-10.2548
芽	-10.2549
缸	-10.2554
kw	-10.257
在这个	-10.2572
级别	-10.2572
等于	-10.2579
策略	-10.2581
鹏	-10.2588
鲜花	-10.2588
聪明	-10.2589
钩	-10.2589
逃	-10.2589
逆	-10.2591
埋	-10.2593
实在	-10.2593
50%	-10.2598
的表现	-10.2603
司机	-10.2604
十年	-10.2605
采购	-10.2605
胎儿	-10.2611
海洋	-10.2616
湖北	-10.2617
礼物	-10.2622
家用	-10.2623
cr	-10.2624
商城	-10.2624
直径	-10.2624
莉	-10.2624
上升	-10.2632
sa	-10.2632
骑	-10.2635
蜂	-10.2638
-16	-10.2638
不懂	-10.2639
门口	-10.2642
妃	-10.2647
旋	-10.2652
?2017	-10.2653
带有	-10.2654
mi	-10.2654
的现象	-10.2657
快捷	-10.2663
-20	-10.2666
民间	-10.2668
战略	-10.2673
好评率	-10.2674
收益	-10.2674
胜利	-10.2675
探索	-10.2676
近期	-10.2676
桌面	-10.2677
戒	-10.2678
延长	-10.2679
钻石	-10.268
很有	-10.2681
频率	-10.2685
的女人	-10.2685
厦门	-10.2688
形状	-10.2691
都很	-10.2696
阁	-10.27
乃	-10.27
71	-10.2702
报警	-10.2704
挑选	-10.2705
材	-10.2705
播	-10.2706
一键	-10.2707
荡	-10.2707
勇	-10.2708
美好	-10.2708
两个人	-10.2711
100%	-10.2712
改造	-10.2713
场景	-10.2714
哈哈	-10.2718
主任	-10.2719
沙发	-10.272
师傅	-10.2721
主播	-10.2722
ad	-10.2725
侯	-10.2727
另一个	-10.2729
本来	-10.2729
发作	-10.2729
单元	-10.2733
举行	-10.2734
了一下	-10.2736
通风	-10.2737
陕西	-10.2737
-22	-10.2739
承诺	-10.274
ask	-10.2749
想象	-10.275
开了	-10.2752
迈	-10.2754
正规	-10.2754
重要的	-10.2759
保留	-10.2761
ra	-10.2764
一半	-10.2765
贡献	-10.2771
癌	-10.2778
an	-10.2781
甚	-10.2785
123	-10.2785
如果没有	-10.2787
火锅	-10.2788
净化	-10.2788
翠	-10.2801
东莞	-10.2803
售	-10.2803
醒	-10.2805
门票	-10.2808
好吃	-10.2813
妊娠	-10.2815
英寸	-10.2817
桂	-10.2818
2005	-10.2818
琳	-10.2825
进行了	-10.2826
的过程中	-10.2826
变形	-10.2828
而不	-10.2829
慧	-10.2829
从此	-10.2832
磁	-10.2833
迁	-10.2834
槽	-10.2834
不错的	-10.2835
苑	-10.2836
职工	-10.2841
桃花	-10.2844
国产	-10.2845
伏	-10.2847
冒险	-10.2849
160	-10.2849
涛	-10.2852
是我	-10.2852
奶粉	-10.2853
携带	-10.2855
炼	-10.2856
摄影	-10.2861
付出	-10.2866
top	-10.287
既然	-10.2873
欣	-10.2874
分解	-10.2876
电梯	-10.2882
厚度	-10.2887
灵活	-10.2891
的治疗	-10.2893
稍微	-10.2893
委员会	-10.2901
告诉你	-10.2902
赢	-10.2903
的功能	-10.2904
其次	-10.2904
入口	-10.2906
骗	-10.291
告	-10.291
卖家	-10.2911
忘记	-10.2918
ok	-10.2918
神秘	-10.2924
开车	-10.2925
有效的	-10.2926
两年	-10.2929
说说	-10.293
起到	-10.2933
预订	-10.2934
旁边	-10.2935
话题	-10.2935
利益	-10.294
咸	-10.2941
重大	-10.295
相应	-10.2954
部队	-10.2954
岸	-10.2955
院校	-10.2958
实行	-10.296
卧	-10.296
妹妹	-10.2962
bo	-10.2967
-25	-10.2969
评估	-10.2971
竖	-10.2973
诗人	-10.2974
碱	-10.2976
讯	-10.2976
会不会	-10.2981
享	-10.2985
锋	-10.2986
挤	-10.2989
耳机	-10.2991
严重的	-10.2991
鞋子	-10.2991
牧	-10.2992
主义	-10.3004
el	-10.3007
妇	-10.3013
130	-10.3013
了吗	-10.3014
犯罪	-10.3014
孟	-10.3023
ve	-10.3025
胶囊	-10.3026
深圳市	-10.3028
-17	-10.3031
助手	-10.3035
科技有限公司	-10.3037
那就是	-10.3039
合适	-10.3041
:(1)	-10.3042
别的	-10.3042
丈夫	-10.3042
高校	-10.3043
术后	-10.3049
男士	-10.3053
较为	-10.306
的回答	-10.3063
密度	-10.3071
验证	-10.3072
册	-10.3074
深度	-10.3081
社交	-10.3082
橡胶	-10.3084
词语	-10.309
的特点	-10.3091
而不是	-10.3098
律	-10.3098
妹	-10.3103
仿佛	-10.3104
群众	-10.3105
丙	-10.3106
自信	-10.3107
纵	-10.3109
自主	-10.3109
的目的	-10.3113
公布	-10.3114
内科	-10.3117
堆	-10.3121
案例	-10.3122
批准	-10.3126
监督	-10.3126
上线	-10.3127
人民币	-10.3129
停车	-10.3129
感动	-10.3133
pa	-10.3133
轮胎	-10.3133
恐怖	-10.314
也不是	-10.3143
二十	-10.3143
算是	-10.3155
倒入	-10.3156
权威	-10.3159
损害	-10.3161
蒜	-10.3165
用手	-10.3165
鼻子	-10.3167
穿着	-10.3168
。7、	-10.3171
化工	-10.3181
大脑	-10.3189
拳	-10.3194
一部	-10.3202
疲劳	-10.3205
账	-10.3208
揉	-10.321
葡萄	-10.321
适宜	-10.3212
瓜	-10.3213
还款	-10.3217
慕	-10.3227
的机会	-10.3227
贾	-10.323
热量	-10.3233
岳	-10.3235
读者	-10.3239
9.	-10.3239
更有	-10.3245
写作	-10.3256
vi	-10.3261
出售	-10.3267
环节	-10.3268
嫁	-10.3271
拨	-10.3272
技	-10.329
免疫	-10.3293
呈现	-10.3295
扇	-10.3298
三十	-10.33
续	-10.3302
彼此	-10.3303
耳朵	-10.3303
扑	-10.3305
会导致	-10.3307
阻	-10.3309
性别	-10.3311
渔	-10.3313
回去	-10.3319
验	-10.3321
说道	-10.3322
da	-10.3324
坛	-10.3326
=1	-10.3338
典	-10.3343
没想到	-10.3344
-14	-10.335
趣	-10.3356
不喜欢	-10.336
乳房	-10.3362
霸	-10.3363
镜头	-10.3363
允许	-10.3368
南方	-10.3369
冻	-10.337
较高	-10.3371
的颜色	-10.3376
帮你	-10.3376
规	-10.3377
替	-10.3378
敷	-10.3378
驻	-10.3383
眼镜	-10.3383
常规	-10.3385
同意	-10.3386
背后	-10.339
cc	-10.3391
是我们	-10.3391
开业	-10.3393
电缆	-10.3399
拍照搜题	-10.3403
命运	-10.3404
windows	-10.341
本书	-10.3412
裙	-10.3413
忘	-10.3417
是否有	-10.342
的能力	-10.342
爱你	-10.3421
美白	-10.3421
强化	-10.3424
un	-10.3425
一定会	-10.3426
很重要	-10.3427
电力	-10.343
操	-10.3431
各大	-10.3432
中考	-10.3433
钥匙	-10.3433
上去	-10.3436
穷	-10.3438
抖音	-10.3441
81	-10.3442
pp	-10.3444
通道	-10.3445
.0	-10.3446
家的	-10.3452
在中国	-10.3452
秒出答案	-10.3453
只需	-10.3453
ar	-10.3461
频	-10.3462
最为	-10.3463
第六	-10.3466
存储	-10.3466
十八	-10.347
康复	-10.3473
加油	-10.3475
热水	-10.3476
下的	-10.3482
有机	-10.3483
微笑	-10.3486
冠军	-10.3488
尊重	-10.3489
返	-10.3491
多数	-10.3491
款式	-10.3497
腹泻	-10.3498
10.	-10.3502
km	-10.3503
3%	-10.3509
变更	-10.3511
po	-10.3514
向上	-10.3518
do	-10.3521
劝	-10.3521
正常的	-10.3523
选购	-10.3525
偶	-10.3529
殿	-10.3532
决	-10.3533
回应	-10.3534
厉害	-10.354
吃的	-10.3542
为准	-10.3548
帮助患者	-10.3554
苍	-10.3557
推荐理由	-10.3557
年前	-10.3559
第二天	-10.3559
职位	-10.356
资产	-10.356
售价	-10.3564
单独	-10.3565
电路	-10.3567
内心	-10.3568
有可能	-10.357
集体	-10.3574
姿	-10.3575
我说	-10.3579
都没	-10.3584
二维码	-10.3585
1%	-10.3587
有助于	-10.3587
研	-10.359
的心	-10.3593
牵	-10.3596
臭	-10.3603
火车	-10.3603
图形	-10.3605
本公司	-10.3607
没事	-10.361
津	-10.361
人间	-10.3611
洗澡	-10.3611
财务	-10.3612
强调	-10.3616
遗	-10.3616
风景	-10.3623
在网上	-10.3624
太平洋电脑	-10.3625
涂抹	-10.3629
又称	-10.3632
十大	-10.3633
卢	-10.3636
描写	-10.3639
场所	-10.3643
专利	-10.3644
温柔	-10.3644
说是	-10.3648
转移	-10.3652
真的是	-10.3655
ab	-10.3655
厂商	-10.3658
姆	-10.3659
时刻	-10.3661
句子	-10.3662
:40	-10.3662
依旧	-10.3662
江西	-10.3668
户外	-10.3671
触	-10.3674
并非	-10.3674
by	-10.3675
用了	-10.3682
的就是	-10.3683
要看	-10.3684
搅拌	-10.3684
袁	-10.3685
首次	-10.3685
理由	-10.3688
低于	-10.3691
体现	-10.3692
强大	-10.3693
刑	-10.3699
吻	-10.37
春节	-10.37
机制	-10.3701
绑定	-10.3703
内的	-10.3704
次下载	-10.3706
防护	-10.3709
将其	-10.3722
原本	-10.3723
赠	-10.3723
章节	-10.3725
爷	-10.3726
避	-10.3726
ex	-10.3728
正品	-10.3735
监控	-10.3735
山东省	-10.3743
你会	-10.3744
-28	-10.3749
我公司	-10.3749
所在	-10.3754
养成	-10.3754
前期	-10.3754
毫米	-10.3757
损坏	-10.3761
解锁	-10.3764
模具	-10.3764
专题	-10.3768
知名	-10.3772
锌	-10.3773
上班	-10.3777
2)	-10.3779
亡	-10.3786
传真	-10.3786
过滤	-10.3786
土壤	-10.3789
排出	-10.3789
浦	-10.3791
囊	-10.3797
商场	-10.3799
顺序	-10.3803
水晶	-10.3803
分数	-10.3805
头痛	-10.3806
醇	-10.3808
us	-10.3813
祖国	-10.3813
欢乐	-10.3817
菜单	-10.3818
警察	-10.3818
字母	-10.3818
溶液	-10.3822
每一	-10.3822
凤凰	-10.3824
据说	-10.3826
优点	-10.3828
幅	-10.383
采纳	-10.3833
然后再	-10.3838
伸	-10.3838
小吃	-10.3838
特性	-10.3839
照顾	-10.384
协调	-10.3846
任意	-10.3848
弹性	-10.3849
担任	-10.3851
去医院	-10.3853
相当于	-10.3856
中毒	-10.3859
非常的	-10.3861
失眠	-10.3862
的设计	-10.3863
sp	-10.3864
鼠标	-10.3866
变成了	-10.3866
贵州	-10.3867
这时候	-10.3869
lemmai	-10.3874
印刷	-10.3877
矛盾	-10.3884
星座	-10.3886
上门	-10.3886
各地	-10.3888
默认	-10.3891
激活	-10.3891
丢	-10.3895
居住	-10.3899
饱	-10.3901
印象	-10.3904
-19	-10.3905
汽	-10.3906
瓷砖	-10.3907
新型	-10.3907
:17	-10.391
相关的	-10.3911
^	-10.3915
以上的	-10.3916
困	-10.3923
造成的	-10.3923
代表作者本人	-10.3925
住宅	-10.3928
过于	-10.3928
精灵	-10.393
懂得	-10.3931
彩色	-10.3932
融合	-10.3935
的基本	-10.3936
生气	-10.3938
便是	-10.3938
-27	-10.394
符号	-10.3941
海鲜	-10.3941
打算	-10.3944
嗯	-10.3945
精选	-10.3947
柴	-10.3949
农民	-10.3949
是多少	-10.3951
基于	-10.3951
如图	-10.3954
积累	-10.3954
up	-10.3956
大多	-10.3957
后再	-10.3959
对面	-10.3965
引导	-10.3966
吾	-10.3967
很高	-10.3971
投资者	-10.3977
还原	-10.3978
是为了	-10.3978
4000	-10.3979
额度	-10.3981
处理器	-10.3982
销量	-10.3986
售后服务	-10.3989
用力	-10.3989
十三	-10.3992
。1.	-10.3995
模板	-10.3998
加快	-10.3999
以内	-10.4
的过程	-10.4
公式	-10.4004
枫	-10.4008
叉	-10.4009
姬	-10.401
范围内	-10.401
下面就	-10.4011
蒂	-10.4012
先后	-10.4013
。6.	-10.4015
ba	-10.4016
伤口	-10.4017
的男人	-10.4019
千万	-10.4019
景观	-10.4019
第三方	-10.402
均可	-10.4022
请咨询专业人士	-10.4028
公司无关	-10.403
是以	-10.4032
提供了	-10.4035
同事	-10.4036
北方	-10.4036
+1	-10.4036
ji	-10.4042
是非常	-10.4043
驱	-10.4045
成为了	-10.4045
1080	-10.4047
ri	-10.4049
任何纠纷	-10.405
尤其涉及	-10.4053
新手	-10.4056
充值	-10.4057
防治	-10.4057
与搜狗	-10.4058
若因此产生	-10.4061
让她	-10.4061
由作者本人负责	-10.4061
ke	-10.4062
益等事项	-10.4063
根据自身实际情况谨慎操作	-10.4063
第三方利	-10.4064
块钱	-10.4065
关键词	-10.4067
序	-10.4069
鹤	-10.4073
:16	-10.4075
出门	-10.4075
配方	-10.4077
-23	-10.4079
br	-10.408
域	-10.4081
翡翠	-10.4081
亩	-10.4081
视觉	-10.4082
荣耀	-10.4083
支撑	-10.4083
真心	-10.4085
几次	-10.4086
肖	-10.4089
口碑	-10.4089
有一种	-10.409
偶尔	-10.4092
布局	-10.4097
财产	-10.41
是中国	-10.41
您可以	-10.4106
联系我们	-10.4106
焊接	-10.4108
伞	-10.4111
-26	-10.4111
博士	-10.4112
(4)	-10.4112
-21	-10.4114
boss	-10.4114
纷纷	-10.4116
2%	-10.4119
瑶	-10.4125
军事	-10.4126
逸	-10.4132
污	-10.4134
设计师	-10.4136
推动	-10.4141
您或	-10.4142
硬盘	-10.4144
猎	-10.4145
舒服	-10.4146
昆明	-10.4147
突	-10.4147
附件	-10.4148
朵	-10.4154
女朋友	-10.4157
合肥	-10.4159
腔	-10.4161
道德	-10.4163
si	-10.4168
赫	-10.417
说了	-10.417
不见	-10.4171
整形	-10.4175
就好了	-10.4176
五行	-10.4182
上午	-10.4189
啤酒	-10.4189
反馈	-10.4189
举办	-10.4193
土豆	-10.4194
分享到	-10.4195
地位	-10.4206
-24	-10.4207
这也是	-10.4212
可在	-10.4212
解答上述	-10.4213
夜间	-10.4214
列表	-10.4221
路由器	-10.4223
岁月	-10.4227
扩大	-10.4231
始	-10.4232
身材	-10.4234
汉字	-10.4235
客人	-10.4235
拨打	-10.4237
表情	-10.4238
不必	-10.4239
蔡	-10.424
是有	-10.4243
颈	-10.4249
字体	-10.425
浸泡	-10.4254
摘	-10.4256
发票	-10.4256
的游戏	-10.4257
推进	-10.4262
大便	-10.4264
疏	-10.4265
傻	-10.4266
;2.	-10.4267
-13	-10.4268
足够	-10.4268
什么样的	-10.4268
】【	-10.4268
不多	-10.427
900	-10.4276
器官	-10.4279
打电话	-10.4282
演出	-10.4284
陶瓷	-10.4285
的需求	-10.4289
电信	-10.429
究竟	-10.429
十一	-10.4299
临时	-10.4302
的变化	-10.4303
副作用	-10.4305
黑暗	-10.431
平常	-10.4324
▁?2017	-10.4327
工程师	-10.4333
走进	-10.4336
锐	-10.4339
返回	-10.4346
好多	-10.435
对你	-10.4353
生产厂家	-10.4355
舟	-10.4356
科研	-10.4356
高兴	-10.4356
天空	-10.4356
讲究	-10.436
鹰	-10.436
妮	-10.4361
菊	-10.4366
蛮	-10.4368
一句话	-10.437
找不到	-10.437
早餐	-10.4371
绳	-10.4372
他是	-10.4374
兆	-10.4379
情侣	-10.438
。[	-10.438
曝光	-10.438
卧室	-10.4382
把握	-10.4382
也就是说	-10.4386
▁?2016	-10.4388
的信息	-10.4391
为何	-10.4395
本次	-10.4401
3.5	-10.4407
翔	-10.441
缓	-10.4412
吕	-10.4412
车站	-10.4413
版权	-10.4414
〕	-10.4415
识	-10.4415
一根	-10.4415
让自己	-10.4419
一人	-10.4423
食材	-10.4423
欢迎批评指正	-10.4425
捏	-10.4426
----	-10.4429
赠送	-10.443
赏	-10.4434
仪器	-10.4434
不管是	-10.4435
流产	-10.4438
译	-10.4441
旅	-10.4441
案件	-10.4451
珍惜	-10.4452
想得到怎样的帮助	-10.4453
途	-10.4455
函数	-10.4463
几种	-10.4463
缺点	-10.4465
讲解	-10.4466
切换	-10.4471
分配	-10.4474
能不能	-10.4475
干部	-10.4485
更为	-10.4485
售后	-10.4488
疗法	-10.449
分手	-10.4492
fe	-10.4497
cpu	-10.4498
纪念	-10.4502
礼包	-10.4505
映	-10.4506
滤	-10.4508
每月	-10.451
起了	-10.451
车主	-10.4513
服务器	-10.4513
亚洲	-10.4518
同时也	-10.4519
帕	-10.4519
:11	-10.452
劫	-10.452
较多	-10.452
特效	-10.4523
兴趣	-10.4525
共有	-10.4529
尽快	-10.4534
他说	-10.4535
;4、	-10.4536
痰	-10.4539
1-2	-10.4546
面包	-10.4546
沾	-10.4549
220	-10.4549
man	-10.455
可以直接	-10.455
主体	-10.4555
依法	-10.4555
煤	-10.456
三角	-10.4561
素材	-10.4563
小朋友	-10.4566
走向	-10.4569
气质	-10.4569
只需要	-10.4571
实际上	-10.4573
下方	-10.4574
迹	-10.4574
连锁	-10.4575
一部分	-10.4576
可以看到	-10.4577
会在	-10.4578
论文	-10.4578
少量	-10.458
银行卡	-10.4583
途径	-10.4585
男主	-10.4585
0.0	-10.4587
产品的	-10.459
稳	-10.4592
不容易	-10.4602
女神	-10.4604
足球	-10.4613
钢管	-10.4614
凭借	-10.4615
频繁	-10.462
2003	-10.4621
孩子们	-10.4625
走到	-10.4625
-30	-10.4627
有限	-10.4633
是最	-10.4635
贸易	-10.4636
-5	-10.4641
没有任何	-10.4644
ce	-10.4647
导致的	-10.4651
糊	-10.4654
问答	-10.4654
中有	-10.4656
气候	-10.4658
割	-10.4659
笔记本	-10.4664
表明	-10.4669
淋	-10.467
符	-10.4673
主营	-10.4678
猴	-10.4679
层次	-10.4679
未知	-10.468
表格	-10.4682
溶	-10.4684
焊	-10.469
三大	-10.4691
比较多	-10.4692
350	-10.4695
那么多	-10.4696
教材	-10.4696
婚礼	-10.4696
董	-10.4699
12.	-10.4699
-29	-10.4703
把它	-10.4711
颗	-10.4712
燃	-10.4713
二级	-10.4713
瘤	-10.4715
爷爷	-10.4717
▁听语音	-10.4719
涂料	-10.4721
一看	-10.4721
大气	-10.4726
doc	-10.4729
宇宙	-10.4732
期限	-10.4732
三国	-10.4734
在家	-10.4741
usb	-10.4742
织	-10.4746
几年	-10.4748
束	-10.4749
零售	-10.4749
竟	-10.4755
斩	-10.4757
140	-10.476
玲	-10.4761
喝酒	-10.4764
收缩	-10.4765
湿疹	-10.4767
你说	-10.4768
怀疑	-10.4769
壶	-10.4769
治愈	-10.4779
得到了	-10.4784
的行为	-10.4785
让您	-10.4787
。(3)	-10.4789
指定	-10.479
就好	-10.4791
帖	-10.4794
基因	-10.4794
美术	-10.4799
液压	-10.4802
被人	-10.4807
一会儿	-10.481
收录	-10.4811
烦	-10.4814
ct	-10.4816
con	-10.4821
现有	-10.4822
简称	-10.4827
香味	-10.4833
供应商	-10.4835
性感	-10.4836
大大	-10.4837
烈	-10.4837
10%	-10.4837
佩	-10.4838
帖子	-10.4838
路口	-10.4839
立刻	-10.4844
此次	-10.4845
浴	-10.4847
出版	-10.4848
壁纸	-10.485
摊	-10.4858
怡	-10.4858
解除	-10.4858
宾	-10.4861
压缩	-10.4865
物体	-10.4865
受伤	-10.4866
最重要的	-10.4868
衰	-10.4873
白癜风	-10.4874
一台	-10.488
128	-10.4881
相机	-10.4882
和平	-10.4884
di	-10.4885
柠檬	-10.4885
不起	-10.4887
专辑	-10.4889
也不能	-10.489
执	-10.4894
方面的	-10.4894
致力于	-10.4895
全科提问	-10.4895
模型	-10.4896
不妨	-10.4899
通信	-10.4901
合格	-10.4903
傲	-10.4904
传感器	-10.4904
要有	-10.4907
手法	-10.4911
试题	-10.4913
半年	-10.4914
想知道	-10.4915
石头	-10.4915
离子	-10.4922
血糖	-10.4923
江南	-10.493
献	-10.494
??2016	-10.4943
摆放	-10.4944
下次	-10.4946
:25	-10.4946
抓住	-10.4948
莎	-10.4949
清水	-10.4957
哟	-10.4957
旭	-10.4958
ppt	-10.4959
香蕉	-10.4959
素质	-10.4962
惊喜	-10.4963
催	-10.4968
服务热线	-10.4969
铃	-10.4971
命令	-10.4973
订阅	-10.4977
乘坐	-10.4977
tv	-10.4979
祝福	-10.4982
机体	-10.4983
精子	-10.4984
生日	-10.4985
一次性	-10.4985
不出	-10.4985
有些人	-10.4988
本品	-10.4989
烦恼	-10.4996
?2018	-10.4998
外面	-10.5002
公司的	-10.5008
大量的	-10.5012
危	-10.5013
操作方法	-10.5017
使用的	-10.502
线上	-10.5022
对待	-10.5027
升高	-10.503
通讯	-10.503
卓	-10.503
带来的	-10.5031
名单	-10.5032
付款	-10.5036
市民	-10.5041
的区别	-10.5041
举报更多	-10.5048
1.6	-10.5049
美味	-10.5053
游泳	-10.5054
打印机	-10.5054
卫生间	-10.5054
一阵	-10.5059
更高	-10.5061
!”“	-10.5063
冯	-10.5066
早泄	-10.5066
预计	-10.5067
之下	-10.5069
产生的	-10.507
配送	-10.5072
示	-10.5074
公众号	-10.5076
ck	-10.5077
很简单	-10.5078
上课	-10.5079
什么的	-10.5083
宿	-10.5083
的味道	-10.5087
大街	-10.5087
钾	-10.509
反正	-10.5091
高铁	-10.5091
万人	-10.5092
小于	-10.5093
很多人都	-10.5097
给自己	-10.5099
上传客户端消息看过	-10.51
发酵	-10.51
湘	-10.5103
有多	-10.5108
all	-10.5109
身体健康	-10.511
日子	-10.5112
模块	-10.5113
优秀的	-10.5117
:8	-10.512
五十	-10.5124
帮忙	-10.5126
节奏	-10.5126
pvc	-10.5136
高档	-10.5137
摄像头	-10.5138
cd	-10.5142
静脉	-10.5148
一座	-10.5152
驾	-10.5156
渐渐	-10.5161
同一	-10.5161
先进的	-10.5164
药物治疗	-10.5165
的新	-10.5166
联盟	-10.5168
产地	-10.517
对应	-10.5175
股东	-10.5176
不超过	-10.5179
我知道	-10.5186
不久	-10.5186
优先	-10.5187
精心	-10.5191
美的	-10.5191
责	-10.5193
:14	-10.5198
gu	-10.5202
不怕	-10.5203
呆	-10.5203
所谓的	-10.5204
脱发	-10.5206
跑步	-10.521
年轻人	-10.5214
机器人	-10.5215
豪华	-10.5216
拟	-10.5221
墓	-10.5222
ph	-10.5222
产后	-10.5224
磷	-10.5224
转换	-10.5227
大连	-10.5228
涉	-10.523
婆	-10.5232
机动车	-10.5236
纱	-10.5238
损	-10.5239
血压	-10.5242
还不错	-10.5244
四大	-10.5244
又有	-10.5245
微信号	-10.5246
2004	-10.5246
的力量	-10.5252
午	-10.5254
事物	-10.5255
热点	-10.5255
脾	-10.5256
水肿	-10.5257
kb	-10.5259
108	-10.5267
北京市	-10.5268
出租	-10.5272
因而	-10.5275
秒懂游戏	-10.5281
-4	-10.5282
少吃	-10.5286
浸	-10.5287
贫血	-10.529
te	-10.529
随机	-10.5293
热爱	-10.5294
建材	-10.5294
欠	-10.5296
一步	-10.5296
传统的	-10.5302
浪费	-10.5303
宿舍	-10.5303
一点点	-10.5304
开花	-10.5304
是很	-10.5305
1500	-10.5309
海南	-10.531
??2018	-10.5311
肿	-10.5311
若是	-10.5312
6%	-10.5313
涵	-10.5315
路上	-10.5318
社保	-10.532
看到了	-10.5324
0.2	-10.5324
冒	-10.5324
复发	-10.5332
经销商	-10.5332
碳	-10.5336
温馨	-10.5337
总之	-10.5339
下载地址	-10.5342
:2019	-10.5342
大门	-10.5343
晕	-10.5345
清新	-10.5345
一批	-10.5345
出现在	-10.5348
ol	-10.5349
化妆	-10.535
魅力	-10.5354
两侧	-10.5359
一篇	-10.5361
一大	-10.5362
:45	-10.5364
记载	-10.5367
鹅	-10.5367
夺	-10.5368
总体	-10.5369
珍珠	-10.5372
冷却	-10.5376
弟弟	-10.5376
对此	-10.5377
之处	-10.5382
zh	-10.5382
宾馆	-10.5382
节能	-10.5386
就行了	-10.5386
0.3	-10.5387
ter	-10.5392
舞台	-10.5392
是你	-10.5394
成果	-10.5394
金币	-10.5396
一本	-10.5397
添	-10.5398
错了	-10.5398
情节	-10.54
无人	-10.5403
指出	-10.5407
被称为	-10.5409
少许	-10.5409
长安	-10.541
代替	-10.5412
增多	-10.5413
显著	-10.5415
洒	-10.5415
13.	-10.5416
岁发病时间	-10.5417
侠	-10.5418
上有	-10.5419
4.5	-10.5419
疑问	-10.5423
激	-10.5423
合并	-10.5424
候	-10.5429
灾	-10.5431
梯	-10.5437
是一家	-10.5438
出版社	-10.5438
印度	-10.5439
jubao	-10.5439
对手	-10.544
道具	-10.5441
坊	-10.5443
:6	-10.5448
贪	-10.545
繁殖	-10.5452
承认	-10.5457
两者	-10.5461
会影响	-10.5462
6000	-10.5464
流畅	-10.5466
叔	-10.5467
天使	-10.5467
愈	-10.547
兑换	-10.5471
好不好	-10.5478
魔法	-10.5479
得了	-10.548
甲状腺	-10.5486
高于	-10.5492
男朋友	-10.5493
游戏中	-10.5496
可以说是	-10.5497
查找	-10.5497
101	-10.5497
法院	-10.5498
汪	-10.5499
惨	-10.5499
呕吐	-10.5501
泡泡	-10.5502
https	-10.5504
市区	-10.5507
多多	-10.5507
丘	-10.5508
累计	-10.5508
摩托车	-10.551
江湖	-10.551
十六	-10.5515
西瓜	-10.5515
承受	-10.5516
:19	-10.5518
礼品	-10.552
昭	-10.552
才可以	-10.5522
吞	-10.5523
:-	-10.5525
生活的	-10.553
对着	-10.5531
请选择	-10.5531
可惜	-10.5536
节日	-10.5537
用心	-10.5538
)-	-10.5539
一般的	-10.5541
住宿	-10.555
6、	-10.5552
:22	-10.5553
疾	-10.5555
客服电话	-10.5558
利息	-10.5558
牌子	-10.5558
放置	-10.5558
地上	-10.5559
河南省	-10.556
细腻	-10.5561
ge	-10.5561
虚拟	-10.5563
缴纳	-10.5563
恶心	-10.5563
趋势	-10.5564
不上	-10.5568
辽宁	-10.5569
的历史	-10.557
1.8	-10.557
培	-10.5572
ca	-10.5573
10000	-10.5573
min	-10.5578
小心	-10.5584
我们将	-10.5585
彭	-10.5585
that	-10.5587
一眼	-10.5588
潘	-10.5588
不算	-10.559
奋斗	-10.559
石家庄	-10.5591
三种	-10.5592
巨大	-10.5592
逐	-10.5597
保湿	-10.56
加重	-10.5601
证券	-10.5608
无锡	-10.5609
显卡	-10.5615
圆形	-10.5617
奶奶	-10.5617
可以说	-10.5618
厂家直销	-10.5618
可以使用	-10.562
委托	-10.5624
平面	-10.5624
图书	-10.5625
策划	-10.5627
pk	-10.5629
ng	-10.5636
卿	-10.5637
解放	-10.5638
直线	-10.5642
一样的	-10.5643
子女	-10.5644
有一定	-10.5644
番	-10.5645
一般在	-10.5647
上方	-10.5648
泰国	-10.5649
20%	-10.565
中午	-10.5652
阴道炎	-10.5653
图像	-10.5656
西北	-10.5656
硅	-10.5657
道理	-10.5658
太大	-10.566
000	-10.5662
洗衣机	-10.5663
铭	-10.5668
后果	-10.5677
8%	-10.5678
西南	-10.5683
孤独	-10.5684
11.	-10.5687
泛	-10.5689
辐射	-10.5696
适	-10.5698
公寓	-10.57
风机	-10.5703
像是	-10.5707
独特	-10.571
利率	-10.5713
遗传	-10.5715
幸运	-10.5716
十九	-10.5717
告诉我	-10.5718
将军	-10.572
弓	-10.5721
企	-10.5726
;(	-10.5726
捷	-10.5727
涌	-10.5729
长大	-10.5731
赔偿	-10.5734
惹	-10.5735
棚	-10.5737
罩	-10.5738
全新的	-10.5741
这两个	-10.5746
无奈	-10.5749
出的	-10.575
青少年	-10.5753
唯	-10.5754
的精神	-10.5754
提问你好	-10.5755
一遍	-10.5756
中国人	-10.5758
意味着	-10.5764
的基础上	-10.5764
正好	-10.5768
差异	-10.5769
中文名	-10.577
我们在	-10.577
姚	-10.5771
:24	-10.5773
神器	-10.5776
底部	-10.578
我们可以	-10.5782
一首	-10.5784
边缘	-10.5785
参考价格	-10.5786
俗	-10.5789
怎么做	-10.5789
平方	-10.5789
很大的	-10.5789
2-3	-10.579
写的	-10.5791
女孩子	-10.5792
优雅	-10.5793
:28	-10.5795
阅	-10.5796
事实	-10.5799
的照片	-10.5802
截图	-10.5802
ll	-10.5804
999	-10.5804
1)	-10.5804
饮用	-10.581
适当的	-10.5813
机油	-10.5815
煞	-10.5816
所致	-10.5817
违法	-10.5819
琪	-10.582
周末	-10.5822
杂志	-10.5824
强烈	-10.5827
考察	-10.5829
辛苦	-10.5833
沪	-10.5833
胸部	-10.5836
是由于	-10.5839
全自动	-10.5839
笼	-10.5842
撕	-10.5846
你想	-10.5846
郁	-10.5852
分开	-10.5853
粮	-10.5855
长江	-10.5855
活力	-10.5857
关注爱问	-10.5858
电动车	-10.586
妹子	-10.5862
生肖	-10.5865
娃娃	-10.5867
书籍	-10.5867
别人的	-10.5869
的选择	-10.587
佩戴	-10.5874
苯	-10.5874
漫	-10.5877
疑	-10.5878
7%	-10.5878
发烧	-10.588
一口	-10.5882
看你	-10.5883
右侧	-10.5892
就行	-10.5894
巷	-10.5894
必须要	-10.5895
最强	-10.5897
文件夹	-10.5898
拿着	-10.59
不得不	-10.59
不含	-10.5901
time	-10.5906
了个	-10.5906
户型	-10.5907
缴费	-10.5909
立体	-10.591
线条	-10.591
毫无	-10.5912
工人	-10.5915
ipad	-10.5916
椅	-10.592
下了	-10.5922
的水	-10.5924
咱们	-10.5928
蜡	-10.5939
长得	-10.5942
灌	-10.5943
一百	-10.5945
差别	-10.5948
有问题	-10.5948
辈	-10.5953
展现	-10.5953
ation	-10.5962
理财	-10.5964
毁	-10.5964
如有	-10.5967
活性	-10.5969
肥胖	-10.5969
肠道	-10.5969
飞行	-10.5969
lu	-10.5969
主任医师	-10.5975
资本	-10.5978
提取	-10.5981
茶叶	-10.5983
去做	-10.5984
姿势	-10.5984
等到	-10.5984
帐号	-10.5985
星级	-10.5985
入住	-10.5987
取出	-10.599
周前	-10.599
bi	-10.5992
信誉	-10.5992
拌	-10.5999
为大家	-10.5999
头部	-10.6
赖	-10.6001
冲击	-10.6002
上海市	-10.6007
是怎么回事	-10.6011
肠胃	-10.6012
刚才	-10.6012
氯	-10.6013
一项	-10.6013
喜爱	-10.6015
淀粉	-10.6017
禁忌	-10.6018
耗	-10.6021
巨大的	-10.6022
新增	-10.6025
航空	-10.6026
向前	-10.6029
:35	-10.603
:9	-10.6031
数码	-10.6032
预测	-10.6035
果实	-10.6036
烧烤	-10.6038
你自己	-10.604
相关信息	-10.6041
逐步	-10.6043
打击	-10.6043
咽	-10.6049
用法	-10.6051
腐	-10.6054
统	-10.6057
蚂蚁	-10.6057
一对	-10.6058
弗	-10.6068
大地	-10.607
补偿	-10.6071
仔	-10.6073
仰	-10.6075
宣布	-10.6077
女装	-10.608
垂直	-10.6081
待遇	-10.6082
美人	-10.6083
pu	-10.6084
同志	-10.6097
后悔	-10.6098
俄罗斯	-10.6099
下面的	-10.6102
还不	-10.6102
上面的	-10.6103
要想	-10.6105
必然	-10.6106
有一些	-10.6106
旗下	-10.6111
枕	-10.6111
宴	-10.6115
会使	-10.6118
这家	-10.612
韦	-10.6123
的身体	-10.6124
观点	-10.6124
痣	-10.6125
卵	-10.6132
浇	-10.6137
小时候	-10.6138
设立	-10.6138
邮件	-10.6139
出自	-10.614
/2	-10.6142
四季	-10.6143
情况下	-10.6148
可以吃	-10.6149
负担	-10.6152
之路	-10.6153
匹配	-10.6153
对身体	-10.6157
沃	-10.616
三天	-10.6161
光明	-10.6164
:4006900000	-10.6164
一代	-10.6165
默	-10.6165
花生	-10.6172
机型	-10.6174
而在	-10.6175
小程序	-10.618
激情	-10.6181
看完	-10.6184
房产	-10.6187
副主任医师	-10.6188
黎	-10.6189
股份有限公司	-10.6189
露出	-10.6191
像素	-10.6191
毛巾	-10.6196
精准	-10.6201
团结	-10.6201
蕾	-10.6203
每周	-10.6204
肺炎	-10.6207
咯	-10.6207
说法	-10.6211
国内外	-10.6212
hu	-10.6215
病因	-10.6216
您可以进行追问或是评价	-10.6216
内衣	-10.6217
高达	-10.6219
的不同	-10.6221
增大	-10.6223
和你	-10.6225
校区	-10.6226
就这样	-10.6228
喜欢的	-10.6229
意大利	-10.623
世界上	-10.6236
痘痘	-10.6237
作出	-10.6238
8000	-10.624
开口	-10.624
114	-10.6241
当初	-10.6243
退出	-10.6244
幻	-10.6244
精致	-10.6247
复习	-10.6247
大人	-10.625
抛	-10.6251
脆	-10.6252
泡沫	-10.6255
来看看	-10.6256
做过	-10.6257
而成	-10.6258
其他的	-10.6258
灯光	-10.6265
裸	-10.6265
坏了	-10.6267
想起	-10.6268
hi	-10.6268
一方	-10.6268
场地	-10.6272
瓷	-10.6274
不吃	-10.6276
3.0	-10.6277
。8、	-10.6278
茎	-10.628
1200	-10.628
excel	-10.6282
个小时	-10.6285
高手	-10.6289
查看全文	-10.6289
山区	-10.629
桩	-10.6293
所在地	-10.6298
快来	-10.6298
具体的	-10.6299
的日子	-10.63
只要你	-10.6305
原始	-10.6307
发展的	-10.6312
永久	-10.6315
住了	-10.6316
护肤品	-10.6317
淘	-10.6321
温泉	-10.6322
肤	-10.6324
按当地市话标准计费	-10.633
提示音后按	-10.6332
一组	-10.634
草莓	-10.634
兰州	-10.6341
ni	-10.6342
无力	-10.635
:56	-10.6351
哈尔滨	-10.6352
体温	-10.6352
截	-10.6352
扔	-10.6354
÷	-10.6355
105	-10.6358
护士	-10.6362
美好的	-10.6362
春秋	-10.6364
想着	-10.6366
感觉到	-10.6366
某个	-10.6367
现代化	-10.6367
市场上	-10.6367
虐	-10.6369
芯片	-10.6371
收取	-10.6373
想想	-10.6376
脱落	-10.6377
前进	-10.6377
会被	-10.6379
坚	-10.6383
蓝牙	-10.6384
蝴蝶	-10.6386
我们要	-10.6391
铸	-10.6399
崇	-10.6402
疯狂	-10.6406
在哪	-10.641
负责人	-10.6414
花卉	-10.6417
辆	-10.6417
近年来	-10.6427
注销	-10.6428
橙	-10.6428
弃	-10.6431
三个月	-10.6431
促	-10.6433
名词	-10.6434
向医生提问疾病百科	-10.6436
我要咨询精选	-10.6439
福州	-10.6439
捉	-10.644
阳台	-10.644
荣誉	-10.6441
¥	-10.6442
老年人	-10.6447
fa	-10.6453
定义	-10.6454
早已	-10.6454
不在	-10.6456
布置	-10.6457
夫人	-10.6457
伴有	-10.6459
适用药品	-10.646
了起来	-10.6461
摄	-10.6464
工作时间	-10.6464
证据	-10.6467
箭	-10.6468
潜	-10.6471
靠近	-10.6471
125	-10.6473
with	-10.6474
xi	-10.6481
护肤	-10.6483
而且还	-10.6484
实习	-10.6486
强制	-10.6486
拓展	-10.6487
寿命	-10.6487
0.8	-10.6489
引进	-10.6489
水中	-10.649
建造	-10.6496
一辈子	-10.6498
跌	-10.6501
不可以	-10.6505
训	-10.6511
亏	-10.6515
述	-10.6516
肯	-10.6517
这边	-10.6518
等信息	-10.6518
权利	-10.6519
一直在	-10.6519
不对	-10.6521
跃	-10.6521
贞	-10.6522
et	-10.6523
示范	-10.6527
并在	-10.6531
手抄报	-10.6537
防火	-10.6545
亲爱的	-10.6545
合适的	-10.6547
是要	-10.6547
4%	-10.6551
单击	-10.6552
访	-10.6552
:2016	-10.6553
是没有	-10.6555
进来	-10.6556
一是	-10.6556
株	-10.6557
二是	-10.6557
分辨率	-10.656
;3.	-10.6565
:23	-10.6568
亲自	-10.6569
奈	-10.657
西方	-10.6573
眼泪	-10.6577
的世界	-10.6581
一般都是	-10.6583
尝	-10.6585
切割	-10.6586
柯	-10.6595
爆发	-10.6596
ii	-10.66
面板	-10.6601
汇总	-10.6603
依靠	-10.6604
0.6	-10.6606
肝脏	-10.6608
放到	-10.6608
外套	-10.6609
赴	-10.6614
头晕	-10.6614
自助	-10.6615
敲	-10.6615
尴尬	-10.6616
给了	-10.6617
的结果	-10.6621
衫	-10.6623
爆炸	-10.6623
肯定是	-10.6624
相关问答	-10.6625
外形	-10.6626
疫苗	-10.6628
会造成	-10.6629
螺旋	-10.6638
这就	-10.6641
结局	-10.6643
演唱	-10.6644
du	-10.6644
一日	-10.6645
五年	-10.6648
狐	-10.6649
篮球	-10.6649
盗	-10.665
再加上	-10.6652
也在	-10.6653
服饰	-10.6655
搬	-10.6657
365	-10.6659
(2	-10.666
监	-10.6663
无关	-10.6666
娃	-10.6666
货物	-10.6668
祭	-10.6674
以上就是	-10.6678
植	-10.6679
生育	-10.6679
相反	-10.668
接收	-10.6682
流动	-10.6684
忧	-10.6685
多么	-10.6685
-7	-10.6686
中华人民共和国	-10.6686
对话	-10.6687
疤痕	-10.6695
踢	-10.6696
充足	-10.6696
叠	-10.6697
尤	-10.6697
衣柜	-10.6699
著名的	-10.6699
更改	-10.67
做什么	-10.67
寂寞	-10.6704
钱包	-10.6706
饲料	-10.6706
所需	-10.6712
遭	-10.6713
坚强	-10.6713
信任	-10.6713
百万	-10.6714
防晒	-10.6716
氢	-10.6717
就不会	-10.6719
荷	-10.6719
愉快	-10.6719
忘了	-10.6721
就没有	-10.6723
面粉	-10.6727
才有	-10.6729
赌	-10.6729
有限责任公司	-10.6732
14.	-10.6733
内分泌	-10.6733
患者的	-10.6737
籽	-10.6737
匹	-10.6738
还需要	-10.6739
多喝水	-10.674
之所以	-10.674
芬	-10.6752
合金	-10.6752
一般情况下	-10.6753
民福康	-10.6753
的学生	-10.6755
蒋	-10.6756
盾	-10.6759
作家	-10.6761
重启	-10.6762
:32	-10.6765
做个	-10.6766
相关内容	-10.6766
正面	-10.6767
行程	-10.6768
周岁	-10.6768
全文	-10.6774
不是很	-10.6774
群体	-10.6775
can	-10.6775
会引起	-10.6775
铅	-10.6777
主要经营	-10.6779
百年	-10.6779
!【	-10.6781
博物馆	-10.6781
锅炉	-10.6782
转让	-10.6785
档案	-10.6786
翘	-10.6787
均为	-10.679
每个人	-10.6794
毫升	-10.6795
中山	-10.6798
但在	-10.6799
逢	-10.6801
的企业	-10.6801
患有	-10.6802
这部	-10.6803
宁波	-10.6803
一会	-10.6803
女友	-10.6803
い	-10.6805
耀	-10.6806
:26	-10.6806
首先要	-10.6806
188	-10.6809
袖	-10.6809
:59	-10.6812
蝶	-10.6812
刹车	-10.6813
cl	-10.6814
的药物	-10.6814
传递	-10.6817
可以去	-10.6817
甘肃	-10.6819
白酒	-10.6819
踏	-10.682
一支	-10.682
sd	-10.6827
大腿	-10.6832
见面	-10.6834
十四	-10.684
童年	-10.6841
完了	-10.6845
招商	-10.6846
之家	-10.6849
对自己	-10.6851
考核	-10.6851
提到	-10.6851
主板	-10.6853
成功的	-10.6854
流水	-10.6857
紫色	-10.6859
还是要	-10.6861
掉了	-10.6862
fi	-10.6863
议	-10.6864
总裁	-10.6868
便捷	-10.6872
景色	-10.6876
消炎	-10.6876
出来了	-10.6878
注册资本	-10.6881
询问	-10.6881
海外	-10.6882
崔	-10.6883
:58	-10.6884
按键	-10.6885
体积	-10.6887
可靠	-10.6887
二次	-10.6888
堡	-10.6888
禅	-10.6894
相处	-10.6896
缴	-10.6904
-9	-10.6905
单词	-10.6906
疮	-10.6908
库存	-10.6908
就诊	-10.6909
蟹	-10.6909
河北省	-10.691
宽度	-10.6912
农历	-10.6914
▁百度经验	-10.692
vs	-10.6922
氛围	-10.6926
公务员	-10.6943
产品名称	-10.6947
以便	-10.6948
一双	-10.6948
普通的	-10.6949
石油	-10.695
牢	-10.6952
旅游攻略	-10.6952
东风	-10.6957
备份	-10.6959
票价	-10.6961
弟	-10.6962
的态度	-10.6962
潮流	-10.6963
墙面	-10.6963
溢	-10.6964
-6	-10.6964
治理	-10.6965
寨	-10.6968
带来了	-10.697
一起来	-10.697
茂	-10.6971
防御	-10.6971
辅导	-10.6973
回归	-10.6974
”(	-10.6975
条评论分享收藏感谢收起	-10.6978
矮	-10.698
就开始	-10.6981
这是一个	-10.6983
sc	-10.6984
猜你喜欢	-10.6986
:07	-10.6987
故意	-10.6988
熬	-10.6994
一杯	-10.6995
7.5	-10.6996
皮肤病	-10.6996
os	-10.6997
这一点	-10.7
教练	-10.7002
枣	-10.7006
和其他	-10.7006
监测	-10.701
卡通	-10.7013
有的人	-10.7018
躲	-10.7018
一股	-10.7019
千里	-10.7019
指挥	-10.7019
防腐	-10.7021
1.1	-10.7023
超越	-10.7024
这句话	-10.7025
节省	-10.7026
:51	-10.7028
协	-10.703
等症状	-10.703
照明	-10.7031
:27	-10.7036
隐私	-10.7039
tu	-10.7041
采用了	-10.7042
备案	-10.7043
富有	-10.7043
开店	-10.7043
am	-10.7044
气温	-10.7044
观念	-10.7046
剥	-10.7046
住院	-10.705
抱着	-10.7051
ul	-10.7052
ka	-10.7053
蜀	-10.7057
学术	-10.7058
灰色	-10.706
排水	-10.7061
il	-10.7063
曲线	-10.7065
170	-10.7065
业主	-10.7066
邓	-10.7067
房地产	-10.7068
地说	-10.7069
颖	-10.7074
明明	-10.7074
熙	-10.7076
面议	-10.7076
去掉	-10.7076
cs	-10.7077
军队	-10.7079
释	-10.7082
能否	-10.7091
你在	-10.7092
ts	-10.7093
bb	-10.7102
-8	-10.7104
卤	-10.7105
坠	-10.7106
多功能	-10.7108
芝麻	-10.7109
元左右	-10.7112
痔疮	-10.7112
成型	-10.7113
说到	-10.7115
昂	-10.7115
138	-10.7116
全世界	-10.7117
兮	-10.7122
千万不要	-10.7123
椒	-10.7123
百姓	-10.7123
叶片	-10.7124
合理的	-10.7129
研究生	-10.7133
自身的	-10.7135
备用	-10.7137
搞笑	-10.7137
钢琴	-10.7138
为例	-10.714
店面	-10.715
主要有	-10.715
判	-10.7152
摄入	-10.7152
播出	-10.7153
:55	-10.7154
说明书	-10.7154
长的	-10.7162
为人	-10.7164
第一时间	-10.7165
肚	-10.7165
一时	-10.7165
的眼睛	-10.7167
破解	-10.717
职称	-10.7172
左边	-10.7173
实木	-10.7174
你知道	-10.7174
棋	-10.7175
治疗费用	-10.7176
起点	-10.7176
80%	-10.7179
卵巢	-10.7181
佐	-10.7184
勿	-10.7187
书法	-10.7189
懒	-10.7191
初步	-10.7191
闷	-10.7192
各项	-10.7195
的手机	-10.7197
职务	-10.72
进行治疗	-10.7201
天生	-10.7204
门诊	-10.7205
叶子	-10.7205
安静	-10.7206
简直	-10.7208
排行	-10.7213
威胁	-10.7214
枚	-10.7217
班级	-10.7218
租房	-10.7219
夕	-10.7221
萍	-10.7222
收购	-10.7225
进了	-10.7225
30%	-10.7226
ha	-10.7227
两天	-10.723
枯	-10.7231
吉林	-10.7231
电气	-10.7233
四十	-10.7234
削	-10.7236
赞同添加评论分享收藏感谢收起	-10.7239
这么多	-10.7241
宝石	-10.7243
ga	-10.7243
的一些	-10.7243
第二个	-10.7249
畅	-10.725
奶茶	-10.725
定做	-10.7251
预算	-10.7253
策	-10.7257
:33	-10.7261
家电	-10.7262
栏目	-10.7262
有一天	-10.7263
南北	-10.7264
猫咪	-10.7266
螺丝	-10.7267
微微	-10.7267
如果不	-10.7269
内裤	-10.727
忽然	-10.7272
协助	-10.7275
ty	-10.7279
感恩	-10.7283
真空	-10.7284
他在	-10.7286
覆	-10.7286
怨	-10.7291
网点	-10.7293
春季	-10.7294
狮	-10.7296
很不错	-10.7297
专属	-10.7298
的确	-10.7298
长城	-10.7301
的质量	-10.7303
战士	-10.7305
碰到	-10.7306
诉	-10.7307
柔软	-10.7309
钓鱼	-10.7312
有趣的	-10.7313
江苏省	-10.7315
甩	-10.7315
排列	-10.7317
黄瓜	-10.7318
摔	-10.7318
新区	-10.7318
sin	-10.732
我现在	-10.7322
吓	-10.7323
135	-10.7327
是不	-10.733
常用的	-10.7331
心态	-10.7331
发达	-10.7332
医药	-10.7334
把我	-10.7335
主机	-10.734
将来	-10.734
产量	-10.7344
以外	-10.7349
外界	-10.7353
金钱	-10.7354
好处	-10.7355
第七	-10.7356
欧美	-10.7358
大海	-10.7359
加载中	-10.7359
表现为	-10.7359
不一定	-10.7361
罚	-10.7365
星星	-10.737
手里	-10.7372
砍	-10.7372
要用	-10.7373
系统的	-10.7375
冥	-10.7377
your	-10.7379
盒子	-10.7379
没人	-10.7381
券	-10.7386
婷	-10.7386
激动	-10.7387
那天	-10.7387
2002	-10.7392
辅	-10.7392
认定	-10.7393
萝卜	-10.7394
犹	-10.7403
168	-10.7404
真的很	-10.7405
竞技	-10.7405
月亮	-10.7408
回头	-10.7413
左侧	-10.7413
要么	-10.7414
甲醛	-10.7414
做一个	-10.7415
脸部	-10.7417
好吗	-10.7417
认可	-10.7417
不动	-10.7417
面向	-10.7418
无比	-10.742
洛阳	-10.7425
发明	-10.7425
陪伴	-10.7426
思路	-10.7427
小白	-10.7428
的爱情	-10.7429
释义	-10.7429
给我们	-10.743
某种	-10.743
发放	-10.7433
般的	-10.7435
紫外线	-10.7436
年纪	-10.7437
选手	-10.7437
轨	-10.7437
生产的	-10.7439
客服热线	-10.7445
注意休息	-10.7446
权限	-10.7446
迟	-10.7452
酸奶	-10.7453
处罚	-10.7457
我不	-10.7458
氮	-10.746
使其	-10.746
尸	-10.7461
抬	-10.7464
扭	-10.7466
靖	-10.7466
。——《	-10.747
楼梯	-10.7473
赛季	-10.7474
恐惧	-10.7477
我有	-10.7478
狠	-10.748
动脉	-10.748
不止	-10.7483
东莞市	-10.7484
几十	-10.7485
摩擦	-10.7485
增加了	-10.7486
告知	-10.7488
手机号码	-10.7489
邻	-10.749
公司名称	-10.7491
小组	-10.7493
锡	-10.7493
皱	-10.7494
货币	-10.7494
公司地址	-10.7495
腺	-10.7497
性和	-10.7497
东南	-10.7498
盲	-10.7499
桐	-10.7506
为止	-10.7507
俗称	-10.7509
耐心	-10.751
plus	-10.751
火爆	-10.751
人心	-10.751
out	-10.7512
园林	-10.7512
变速箱	-10.7515
:29	-10.7516
使人	-10.7518
设有	-10.7518
信心	-10.7519
形成了	-10.752
不舒服	-10.7523
娶	-10.7526
比如说	-10.7526
车身	-10.7528
十七	-10.7529
:48	-10.753
体会	-10.7532
的衣服	-10.7533
哀	-10.7535
那边	-10.7535
秘密	-10.7536
行情	-10.7537
发音	-10.7537
州市	-10.7544
帆	-10.7546
冷冻	-10.7549
的学习	-10.7554
一番	-10.7557
佛山	-10.7557
改进	-10.7557
最新的	-10.7558
实验室	-10.7558
传承	-10.756
阶	-10.7561
撑	-10.7562
音频	-10.7563
读音	-10.7564
病情描述	-10.7567
约定	-10.757
捕	-10.7573
:43	-10.7575
砸	-10.7578
制冷	-10.7579
粤	-10.758
暮	-10.7581
一键查看所有搜题记录	-10.7581
郡	-10.7582
地理	-10.7583
标识	-10.7583
羊肉	-10.7583
~~~	-10.7586
继承	-10.7588
106	-10.7588
深受	-10.7593
毕业生	-10.7595
音响	-10.7596
su	-10.7599
灵魂	-10.7605
做事	-10.7607
切成	-10.7608
再用	-10.7613
暴力	-10.7614
尚未	-10.7617
雁	-10.7617
傅	-10.7621
主持	-10.7624
容器	-10.7625
我们会	-10.7625
137	-10.7627
高速公路	-10.763
看上去	-10.7633
放下	-10.7635
远离	-10.7636
ia	-10.7636
室外	-10.7637
搬家	-10.7638
秘	-10.7639
假如	-10.7641
的速度	-10.7642
色素	-10.7642
不一样的	-10.7644
交换	-10.7644
手术治疗	-10.7645
饰演	-10.7646
给她	-10.7649
一开始	-10.7652
这里的	-10.7654
:21	-10.7654
私人	-10.7656
搓	-10.7656
通话	-10.7658
噪音	-10.7661
ki	-10.7661
专区	-10.7662
广州市	-10.7664
5.0	-10.7669
视力	-10.767
奏	-10.7673
我们就	-10.7674
警方	-10.7674
:36	-10.7676
传输	-10.7676
酥	-10.7677
兹	-10.7678
男友	-10.7679
盈	-10.7679
滋润	-10.7683
希望能	-10.7683
裤子	-10.7683
rs	-10.7685
文艺	-10.7687
第二次	-10.7689
氟	-10.7692
不安	-10.7693
骨折	-10.7694
:34	-10.7703
遇见	-10.7707
真相	-10.7712
乡村	-10.7713
都知道	-10.7717
可爱的	-10.7719
参观	-10.7719
仲	-10.7721
所属	-10.7721
上述提问	-10.7722
per	-10.7723
更精彩	-10.7724
厕所	-10.7724
悬	-10.7726
袭	-10.7727
痤疮	-10.7728
熔	-10.7728
服务员	-10.7729
大会	-10.7729
新车	-10.7735
139	-10.7737
腻	-10.7739
铝合金	-10.7739
转账	-10.774
营业	-10.774
自动化	-10.7742
盟	-10.7743
又名	-10.7744
丧	-10.7746
人流	-10.7746
的发生	-10.7746
厨	-10.7747
?|	-10.7747
有人说	-10.7748
的心情	-10.7748
单纯	-10.7748
绘画	-10.7749
友谊	-10.7751
签约	-10.7752
海量	-10.7759
iso	-10.7761
三次	-10.7764
买家	-10.777
苹果手机	-10.7771
活跃	-10.7772
新建	-10.7775
钠	-10.7775
慈	-10.7776
爹	-10.7778
弯曲	-10.7778
初期	-10.778
王子	-10.7781
1.4	-10.7782
高层	-10.7782
祸	-10.7782
朴	-10.7784
第一步	-10.7786
是怎么	-10.7786
(5)	-10.7789
平板	-10.7789
戈	-10.7791
出演	-10.7792
三角形	-10.7793
好看的	-10.7795
热血	-10.7798
cos	-10.78
堵	-10.7802
商店	-10.7804
门窗	-10.7805
咨询电话	-10.7805
漂亮的	-10.781
客观	-10.7813
158	-10.7814
补贴	-10.7816
工商	-10.7816
少数	-10.7821
节约	-10.7822
姑	-10.7824
136	-10.7826
饺子	-10.7827
纲	-10.7829
上火	-10.7829
早晨	-10.7831
价位	-10.7832
角色扮演	-10.7832
黄河	-10.7832
炭	-10.7833
不当	-10.7834
多云	-10.7834
众人	-10.7835
越来越多	-10.7835
绝缘	-10.7835
繁	-10.7841
促销	-10.7845
发生了	-10.7847
朋友们	-10.7847
加大	-10.7847
上来	-10.7848
便于	-10.7849
完美的	-10.785
恤	-10.7852
一起来看看吧	-10.7852
窄	-10.7854
虹	-10.7855
幻想	-10.7856
1.00	-10.7856
=2	-10.786
解决方案	-10.7861
合法	-10.7861
day	-10.7862
爱好者	-10.7864
危机	-10.7866
不去	-10.7872
富含	-10.7873
在一个	-10.7874
社会主义	-10.7875
手臂	-10.7876
区分	-10.7878
光滑	-10.7879
看到的	-10.7879
过后	-10.7881
逻辑	-10.7882
爪	-10.7884
毒素	-10.7884
外表	-10.7885
的患者	-10.7888
越大	-10.7888
只会	-10.7888
0.4	-10.7888
在我	-10.7893
驰	-10.7901
爱心	-10.7903
讨	-10.7905
教你	-10.7906
丢失	-10.7907
零食	-10.7913
电阻	-10.7913
最早	-10.7913
配备	-10.7918
日记	-10.792
胺	-10.7922
质地	-10.7924
我还	-10.7926
分期	-10.7926
很喜欢	-10.7927
一方面	-10.7928
??|??	-10.7928
的各种	-10.7932
新生	-10.7935
住房	-10.7936
|0	-10.7944
同房	-10.7944
分钟前	-10.7945
贫	-10.7948
你可能感兴趣	-10.7949
手淫	-10.7951
玩游戏	-10.7952
屈	-10.7953
妇产科	-10.7955
骑士	-10.7957
关机	-10.7957
跟我	-10.7957
分别是	-10.7959
老年	-10.7959
if	-10.7961
巧克力	-10.7961
陷	-10.7962
选中	-10.7963
义务	-10.7963
风雨	-10.7965
碑	-10.7966
什	-10.7968
俱	-10.797
辉煌	-10.7971
给孩子	-10.7972
缓慢	-10.7973
专注	-10.7975
新人	-10.7975
走路	-10.7976
去看	-10.7976
见过	-10.7979
:37	-10.7979
cu	-10.7981
:38	-10.7983
长春	-10.7983
删	-10.7983
副本	-10.7984
都说	-10.7984
折叠	-10.7988
****	-10.7988
别名	-10.7993
肛门	-10.7995
感兴趣	-10.7996
储存	-10.7996
有趣	-10.7998
趣味	-10.8002
渐	-10.8004
阅读全文	-10.8004
〗	-10.8005
喉	-10.8005
如图所示	-10.8006
:52	-10.8011
酱油	-10.8015
观赏	-10.8019
刚开始	-10.8019
远远	-10.8019
极其	-10.8021
谓	-10.8023
痕	-10.8023
的大小	-10.8024
给人	-10.8024
依次	-10.8025
jd	-10.8027
如同	-10.8027
腹痛	-10.8027
遵守	-10.8027
等方面	-10.8029
〖	-10.8032
签订	-10.8033
回报	-10.8033
15.	-10.8035
薛	-10.8035
诞生	-10.8037
后台	-10.8038
邮	-10.8039
就需要	-10.8041
胀	-10.8044
瓣	-10.8047
你说的	-10.8052
早就	-10.8052
五个	-10.8054
:¥	-10.8055
交叉	-10.8055
肾脏	-10.8056
笔画	-10.8057
遭遇	-10.8059
做成	-10.806
用户的选择	-10.8062
风光	-10.8063
给您	-10.8063
光线	-10.8068
予	-10.8068
五金	-10.8068
老鼠	-10.8069
不像	-10.8072
成立于	-10.8074
提供的	-10.8075
唱歌	-10.808
棍	-10.8083
对人体	-10.8086
:42	-10.8087
:44	-10.8087
薇	-10.8091
输送	-10.8096
需要注意	-10.8098
家中	-10.8098
低温	-10.8099
行业的	-10.8099
整合	-10.81
的所有	-10.8103
这条	-10.8104
450	-10.8104
诊疗	-10.8105
春风	-10.8106
手上	-10.8107
不高	-10.8107
谨慎	-10.8107
右手	-10.8108
甜蜜	-10.8111
一流	-10.8112
拿出	-10.8113
开水	-10.8114
勺	-10.8115
使用方法	-10.8117
专业资料	-10.8121
扯	-10.8122
仇	-10.8125
游玩	-10.8126
两边	-10.8127
想法	-10.8127
颜值	-10.8127
等多种	-10.8129
樱桃	-10.8131
油腻	-10.8132
模糊	-10.8132
一系列	-10.8138
的可能性	-10.8138
到现在	-10.8139
帘	-10.814
由此	-10.8141
。7.	-10.8143
▁?2019	-10.8146
allrightsreserved	-10.8146
寓意	-10.8147
证件	-10.8147
大致	-10.8148
:49	-10.8148
的原则	-10.8148
家园	-10.8149
带上	-10.815
有许多	-10.8155
异味	-10.8156
是从	-10.8157
最快	-10.8161
绒	-10.8165
王者	-10.8165
:53	-10.8165
我都	-10.8169
1-	-10.817
的状态	-10.8172
主流	-10.8173
新品	-10.8178
锤	-10.8178
tt	-10.818
不受	-10.8181
不适合	-10.8182
所以在	-10.8182
明显的	-10.8184
不利	-10.8185
越高	-10.8186
衣物	-10.8186
干扰	-10.8186
ci	-10.8187
:39	-10.8188
功夫	-10.8189
万公里	-10.8192
流通	-10.8193
似的	-10.8195
婉	-10.8199
一个小	-10.8199
个体	-10.8201
知识产权	-10.8203
其实是	-10.8204
稳定性	-10.8205
考虑是	-10.8208
哇	-10.8208
渗透	-10.821
学期	-10.8213
play	-10.8214
获得了	-10.8217
来讲	-10.822
很久	-10.8223
运势	-10.8225
秋天	-10.8225
毛孔	-10.8227
因为我	-10.8227
帐	-10.8232
逗	-10.8235
停车场	-10.8241
否	-10.8244
有效期	-10.8246
场合	-10.8247
根据你的描述	-10.8249
考研	-10.8249
最小	-10.825
储	-10.8253
联想	-10.8253
==	-10.8253
一丝	-10.8253
:31	-10.8253
渴望	-10.8254
:47	-10.8255
眼前	-10.8257
能源	-10.8258
忍不住	-10.826
的那种	-10.8263
很小	-10.8264
oh	-10.8265
小时前	-10.8271
必备	-10.8273
的形式	-10.8276
大厅	-10.8277
基层	-10.8283
二人	-10.8283
love	-10.8289
效果图	-10.8293
遥	-10.8294
产品质量	-10.8295
漂	-10.8295
力度	-10.8295
境内	-10.8302
外用	-10.8302
折扣	-10.8304
出现的	-10.8305
守护	-10.8311
输卵管	-10.8313
我来	-10.8313
正版	-10.8314
对他	-10.8315
抵	-10.8316
5.5	-10.8316
一笑	-10.8317
bd	-10.8318
面临	-10.8318
好奇	-10.8319
事项	-10.8321
一身	-10.8323
衡	-10.8323
授	-10.8326
/1	-10.8328
饰品	-10.8328
沉淀	-10.8329
性交	-10.8334
上映	-10.8334
开门	-10.8335
扁	-10.8337
填充	-10.8338
简体中文	-10.8346
高的	-10.8347
我很	-10.8348
自觉	-10.8349
小学生	-10.835
上学	-10.8353
帮我	-10.8353
的专业	-10.8353
dnf	-10.8355
点赞	-10.8355
max	-10.8359
越好	-10.836
摘要	-10.8366
审批	-10.8366
she	-10.8367
抗生素	-10.8368
葬	-10.8375
抚	-10.8376
溶解	-10.8379
简约	-10.8381
:57	-10.8383
还可	-10.8386
发生在	-10.839
ion	-10.8392
大夫	-10.8393
不断的	-10.8394
划分	-10.8394
有一	-10.8396
隔离	-10.8397
湿度	-10.8398
还有一个	-10.8399
便利	-10.84
从小	-10.84
深刻	-10.8401
公交车	-10.8401
堵塞	-10.8404
就把	-10.8404
在你	-10.8404
温和	-10.8406
最常见的	-10.8407
讨厌	-10.8408
指甲	-10.8409
伤心	-10.8411
确诊	-10.8413
把自己	-10.8414
显然	-10.8415
包裹	-10.8416
琼	-10.8416
9%	-10.8419
可达	-10.842
到位	-10.8421
失望	-10.8425
穆	-10.8425
非法	-10.8425
越多	-10.843
2001	-10.8431
相同的	-10.8431
自从	-10.8431
行走	-10.8431
au	-10.8432
16.	-10.8433
:46	-10.8434
反射	-10.8435
监管	-10.8436
皇后	-10.8437
平行	-10.8441
2-	-10.8442
1999	-10.8442
那时	-10.8442
玻璃钢	-10.8444
成品	-10.8447
杀人	-10.8448
118	-10.8448
son	-10.8449
单人	-10.845
门店	-10.8452
车子	-10.8458
体力	-10.8458
射精	-10.846
硕	-10.8463
$	-10.8467
一线	-10.8467
选择了	-10.8472
三级	-10.848
扫二维码下载作业帮	-10.8485
包皮	-10.8486
遂	-10.8487
酒吧	-10.8489
工作的	-10.8492
求收藏	-10.8494
有害	-10.8495
泻	-10.8497
吉祥	-10.8498
下面是	-10.8499
:01	-10.8501
扩展	-10.8501
千年	-10.8512
西路	-10.8513
对外	-10.8513
录音	-10.8514
ms	-10.8515
前来	-10.8516
宫颈	-10.8518
坚定	-10.852
扫一扫	-10.852
有益	-10.8522
了不少	-10.8522
贼	-10.8527
披	-10.8527
焦虑	-10.8533
芝	-10.8533
替代	-10.8536
冲洗	-10.8543
!(	-10.8543
大神	-10.8547
僧	-10.8551
较低	-10.8553
纹身	-10.8553
戒指	-10.8553
护栏	-10.8554
钉	-10.8557
〔	-10.8557
接到	-10.8558
说过	-10.8559
还好	-10.8559
商铺	-10.856
我自己	-10.8563
落地	-10.8565
坤	-10.8566
生姜	-10.8568
逛	-10.8569
开发商	-10.8569
十几	-10.8572
饭店	-10.8572
捧	-10.8574
仅售	-10.8576
果然	-10.8577
会让	-10.8577
金刚	-10.8579
不论	-10.8581
主持人	-10.8582
和他	-10.8583
风吹	-10.8584
咳	-10.8584
痴	-10.8584
两条	-10.8587
wi	-10.8588
多大	-10.8588
进食	-10.8591
亲人	-10.8595
巡	-10.8596
较好	-10.8597
显示器	-10.86
1.3	-10.8602
止痛	-10.8603
极为	-10.8603
镁	-10.8604
107	-10.8606
:7	-10.8607
ap	-10.8608
耕	-10.8609
洗脸	-10.861
下载作业帮安装包扫二维码下载作业帮	-10.861
▁下载作业帮扫二维码下载作业帮	-10.861
灶	-10.8611
珠宝	-10.8617
郊	-10.8618
叹	-10.862
今后	-10.8621
准备好	-10.8622
党员	-10.8622
仪式	-10.8622
多发人群	-10.8624
仓库	-10.8627
贱	-10.8632
联通	-10.8633
可分为	-10.8635
不愿意	-10.8636
有多少	-10.8636
城镇	-10.8637
疾病的	-10.8637
的钱	-10.8638
自制	-10.8638
夸	-10.8639
:54	-10.8641
领先	-10.8641
的方向	-10.8643
汽油	-10.8646
剂量	-10.8647
后续	-10.8647
公安	-10.8649
然后在	-10.865
刃	-10.8655
内蒙古	-10.8656
诉讼	-10.8657
油脂	-10.8657
就被	-10.8658
运气	-10.8658
筑	-10.866
缺陷	-10.866
ent	-10.8661
。2016	-10.8662
祝你	-10.8667
毕	-10.8668
老化	-10.867
lol	-10.8671
滨	-10.8671
亮点	-10.8674
一群	-10.8674
真诚	-10.8675
美元	-10.8675
骚	-10.8678
哎	-10.8679
膝	-10.8679
相关推荐	-10.8681
顾问	-10.8683
事实上	-10.8683
几百	-10.8684
了许多	-10.8685
一一	-10.8685
申报	-10.8686
网易	-10.8687
杠	-10.8687
我喜欢	-10.8692
109	-10.8695
vivo	-10.8695
一面	-10.8697
让孩子	-10.8697
跟你	-10.8701
违反	-10.8704
得知	-10.8706
发现了	-10.8708
面料	-10.8711
富贵	-10.8714
百合	-10.8716
特殊的	-10.8716
暴露	-10.8717
无敌	-10.872
情人	-10.8723
买卖	-10.8723
此类	-10.8723
东路	-10.8724
大赛	-10.8729
於	-10.873
熬夜	-10.873
多人	-10.8733
胡萝卜	-10.8733
:41	-10.8736
小小的	-10.8737
幸	-10.8739
cp	-10.874
梦境	-10.874
送给	-10.8742
把你	-10.8747
5.00	-10.8749
树脂	-10.8749
指的是	-10.8749
差距	-10.8749
左手	-10.875
妍	-10.8751
褐色	-10.8755
对我	-10.8756
被浏览	-10.8756
南昌	-10.8757
模特	-10.8757
留学	-10.8758
高低	-10.876
的感情	-10.8761
癌症	-10.8763
巢	-10.8768
麻将	-10.8769
规定的	-10.877
骨头	-10.8773
转动	-10.8778
888	-10.878
其余	-10.878
馨	-10.8782
集成	-10.8783
的那个	-10.8789
太原	-10.879
前列腺炎	-10.8791
师范大学	-10.8793
皮带	-10.8794
内容简介	-10.8794
的爱	-10.8798
籍	-10.8798
就医问药	-10.88
樱	-10.8802
胆固醇	-10.8803
的作品	-10.8806
dis	-10.8807
签名	-10.8807
不用担心	-10.8807
去世	-10.8811
阴阳	-10.8812
380	-10.8812
排队	-10.8815
教室	-10.8817
昊	-10.8819
桂林	-10.8821
陌生	-10.8822
到处	-10.8825
千克	-10.8825
你还	-10.8828
债	-10.8828
前列腺	-10.8829
公众	-10.8829
最好不要	-10.8829
air	-10.8832
不变	-10.8833
没办法	-10.8835
冠心病	-10.8836
里有	-10.8837
条件下	-10.8837
终身	-10.8845
活着	-10.8847
吸烟	-10.8849
哲	-10.885
村民	-10.8851
来电	-10.8854
百科	-10.8854
肾虚	-10.8856
茅	-10.8856
当事人	-10.8857
her	-10.886
厂房	-10.8863
眼里	-10.8864
兔子	-10.8866
困扰	-10.8866
7、	-10.8867
气息	-10.8867
dr	-10.887
六十	-10.8872
内外	-10.8875
红枣	-10.8877
大专	-10.8877
弘	-10.8882
一类	-10.8882
西部	-10.8883
讲述	-10.8885
是比较	-10.8886
民主	-10.8886
遮	-10.8887
仅仅	-10.8889
捡	-10.889
有两个	-10.8891
必要	-10.8893
日前	-10.8894
问我	-10.8894
系数	-10.8895
炫	-10.8896
课堂	-10.8896
一副	-10.8897
蒸汽	-10.8897
+2	-10.8897
顶级	-10.8898
赐	-10.8899
极限	-10.8899
有机会	-10.89
了一些	-10.8903
部件	-10.8906
持久	-10.8907
太子	-10.8909
握	-10.891
窗帘	-10.891
采集	-10.891
用水	-10.8911
在意	-10.8913
赋	-10.8914
散热	-10.8915
:【	-10.8916
吐槽	-10.8917
半小时	-10.8918
的目标	-10.8919
余额	-10.892
im	-10.892
考验	-10.8921
数值	-10.8925
111	-10.8927
kf	-10.893
建成	-10.8931
热闹	-10.8933
胃肠	-10.8935
gl	-10.8938
神奇	-10.8943
感受到	-10.8943
看不到	-10.8944
予以	-10.8945
加盟商	-10.8945
的手	-10.8945
透露	-10.8947
氨基酸	-10.8947
姐妹	-10.8956
都不会	-10.8958
单身	-10.8958
黑白	-10.8962
ff	-10.8962
户口	-10.8963
截止	-10.8965
金色	-10.8966
在国内	-10.8966
到医院	-10.8967
为什么要	-10.8968
115	-10.8969
眼部	-10.8969
毅	-10.897
镜子	-10.897
666	-10.897
达人	-10.8971
完整的	-10.8973
的同学	-10.8975
酸性	-10.8976
治疗方法	-10.8976
进化	-10.8977
小伙伴们	-10.8977
吟	-10.898
党的	-10.8982
找个	-10.8983
精力	-10.8984
跪	-10.8984
硬度	-10.8984
显示全部关注者	-10.8988
导入	-10.8989
商户	-10.8996
典型	-10.8998
里面有	-10.8998
竞	-10.9001
320	-10.9001
为此	-10.9002
形成的	-10.9005
现货	-10.9005
↓	-10.9009
气血	-10.9009
不要太	-10.9009
教育专区	-10.901
疯	-10.9011
溜	-10.9019
话说	-10.9019
担	-10.9024
意志	-10.9025
事业单位	-10.9026
葫芦	-10.9028
咋	-10.9028
瑟	-10.903
推出的	-10.9031
制成	-10.9031
8.00	-10.9032
的想法	-10.9032
人事	-10.9033
不成	-10.9035
是用	-10.9035
矣	-10.9035
右边	-10.9038
屁股	-10.9038
不停	-10.9042
240	-10.9047
mv	-10.9049
移植	-10.9049
梗	-10.9052
大战	-10.9054
花椒	-10.9055
思念	-10.9058
车间	-10.9058
筛	-10.9058
生动	-10.9059
中国的	-10.9061
套路	-10.9061
天堂	-10.9061
五一	-10.9062
ds	-10.9065
借助	-10.9068
支架	-10.9068
巾	-10.9068
膨胀	-10.9071
校长	-10.9076
一夜	-10.9076
式的	-10.9086
浇水	-10.9086
融资	-10.9088
滩	-10.909
氨	-10.9091
封闭	-10.9094
操作系统	-10.9094
纯净	-10.9101
完善的	-10.9102
错过	-10.9103
好玩	-10.9104
佛教	-10.9104
电商	-10.9104
不要吃	-10.9104
对应的	-10.9106
勇敢	-10.9111
对不起	-10.9111
最高的	-10.9111
缺少	-10.9112
网红	-10.9113
ku	-10.9113
尽可能	-10.9115
扮演	-10.9117
她是	-10.912
召唤	-10.9121
闸	-10.9122
市三甲医院约	-10.9123
展览	-10.9124
;5、	-10.9125
精英	-10.9126
之旅	-10.9128
ep	-10.9129
特别的	-10.9131
栽培	-10.9131
的基础	-10.9133
善于	-10.9133
每个人都	-10.9133
远程	-10.9135
不说	-10.9136
效应	-10.9138
潮湿	-10.9139
书写	-10.9139
的动作	-10.914
水管	-10.914
手中	-10.9141
入手	-10.9144
畸形	-10.9144
省级	-10.9144
必选	-10.9145
秋季	-10.9147
退款	-10.9148
马桶	-10.9151
ju	-10.9153
抄	-10.9156
指纹	-10.9158
地震	-10.9158
oppo	-10.916
的人生	-10.9161
常见病	-10.9162
有无	-10.9162
剩余	-10.9163
补肾	-10.9164
插座	-10.9167
”;	-10.9171
头上	-10.9171
主管	-10.9172
岁以上	-10.9177
比较大	-10.9178
癫痫病	-10.918
花费	-10.9181
所说的	-10.9183
秉承	-10.9183
国务院	-10.9185
ì	-10.9187
简洁	-10.9187
外出	-10.9189
轴承	-10.919
无效	-10.9193
。9、	-10.9194
走出	-10.9195
17.	-10.9196
我爱	-10.9197
称号	-10.9201
一辆	-10.9204
我要评论	-10.9204
活泼	-10.9206
起步	-10.9206
分数线	-10.9207
请联系	-10.9208
的部分	-10.9208
are	-10.9208
可怜	-10.9209
可以让	-10.9211
驴	-10.9212
就来	-10.9213
排卵	-10.9213
我的世界	-10.9216
身体的	-10.922
op	-10.922
一定是	-10.9222
额外	-10.9222
花钱	-10.9222
特价	-10.9223
智力	-10.9224
辛辣	-10.9225
察	-10.9225
牺牲	-10.9227
核桃	-10.9228
欢迎来到	-10.9228
综合征	-10.9235
new	-10.9236
谦	-10.9239
打了	-10.9241
是不会	-10.9241
好用	-10.9241
但我	-10.9242
钢结构	-10.9243
赔	-10.9244
的女性	-10.9246
0.7	-10.9246
一小	-10.9251
舰	-10.9252
的使用	-10.9253
哪种	-10.9253
工作室	-10.9254
神话	-10.9254
新生儿	-10.9255
作为一个	-10.9256
钢筋	-10.9259
要把	-10.9265
李白	-10.9265
完成后	-10.9266
遗憾	-10.9269
皱纹	-10.9271
历史上	-10.9271
申请人	-10.9272
境界	-10.9272
公民	-10.9279
万里	-10.9281
薪	-10.9281
题材	-10.9282
流传	-10.9283
纠纷	-10.9284
一手	-10.9286
柄	-10.9287
hd	-10.9287
怪物	-10.929
编制	-10.929
到这里	-10.929
补水	-10.9291
梳	-10.9291
介	-10.9294
杀菌	-10.9298
没有人	-10.9299
挥	-10.9303
并发症	-10.9303
的规定	-10.9304
试卷	-10.9307
是对	-10.9308
骄傲	-10.9308
hc	-10.9309
平静	-10.9309
月经不调	-10.931
脓	-10.931
机身	-10.9311
改为	-10.9312
这件事	-10.9313
io	-10.9317
的老	-10.9319
南路	-10.932
忽	-10.9321
很强	-10.9323
心灵	-10.9325
宝宝的	-10.9326
唯一的	-10.9327
延伸	-10.9327
南宁	-10.9328
能让	-10.9329
精美	-10.9332
给出	-10.9333
102	-10.9334
189	-10.9335
派出所	-10.9335
是需要	-10.9337
的意义	-10.9338
分公司	-10.9338
四肢	-10.9338
出品	-10.9338
多样	-10.934
90%	-10.9341
课文	-10.9342
的生命	-10.9343
录制	-10.9344
疗	-10.9345
清爽	-10.9345
正文	-10.9346
教育部	-10.9347
内涵	-10.9349
?2016	-10.9351
动词	-10.9352
750	-10.9352
.2	-10.9354
确	-10.9354
树立	-10.9354
宽带	-10.9355
sim	-10.9356
健康的	-10.9356
芒果	-10.9357
菊花	-10.936
190	-10.936
万播放	-10.936
而又	-10.9363
猪肉	-10.9364
正在加载	-10.9365
所以说	-10.9366
进度	-10.937
暂	-10.937
儿科	-10.9371
明亮	-10.9371
人们的	-10.9371
pi	-10.9371
这两	-10.9372
择	-10.9372
破解版	-10.9373
问道	-10.9374
依赖	-10.9378
拍卖	-10.9385
蚕	-10.9385
会自动	-10.9386
新房	-10.9386
俱乐部	-10.9389
翁	-10.9392
吸附	-10.9398
的成语	-10.9398
风情	-10.94
心理学	-10.9401
性疾病	-10.9402
列车	-10.9402
管家	-10.9403
在使用	-10.9404
聚集	-10.9404
眼中	-10.9406
一共	-10.9408
天才	-10.9409
开设	-10.941
è	-10.9415
四周	-10.9415
这段	-10.9416
老虎	-10.9417
找到了	-10.9421
带领	-10.9423
伙伴	-10.9424
被动	-10.9425
近视	-10.9428
≥	-10.9431
之人	-10.9431
第八	-10.9435
只好	-10.9435
倒是	-10.9437
cf	-10.944
玩家们	-10.9443
冲突	-10.9443
而来	-10.9444
光泽	-10.9445
侍	-10.9446
的最佳	-10.9447
瘙痒	-10.945
矫正	-10.9454
科室	-10.9455
这也	-10.9457
队长	-10.9457
奔驰	-10.9457
¥1	-10.9458
给宝宝	-10.946
针灸	-10.9462
受理	-10.9465
请点击	-10.9466
名为	-10.9468
每天都	-10.9468
赶快	-10.9469
战场	-10.947
座椅	-10.9471
要知道	-10.9471
哪家	-10.9472
暗示	-10.9473
传染	-10.9474
拾	-10.9474
彩票	-10.9475
丛	-10.9476
长久	-10.9477
not	-10.9478
安慰	-10.948
第一章	-10.948
志愿	-10.9481
入门	-10.9482
杀死	-10.9483
油漆	-10.9483
磊	-10.9485
才知道	-10.9486
经期	-10.9488
间隔	-10.9491
精密	-10.9495
缠	-10.9495
优质的	-10.9497
/5	-10.9501
不清	-10.9501
粘膜	-10.9504
谭	-10.9505
外阴	-10.9506
西藏	-10.9506
借款	-10.9509
贸	-10.951
外部	-10.9512
拥	-10.9512
激发	-10.9512
免疫力	-10.9512
mon	-10.9513
世间	-10.9513
沐	-10.9515
8.5	-10.9516
禾	-10.9517
的存在	-10.9519
结论	-10.9524
了我	-10.9525
古典	-10.9526
ir	-10.9528
饿	-10.953
司法	-10.9531
番外	-10.9533
交往	-10.9535
的皮肤	-10.9536
采访	-10.9536
详细的	-10.9537
mac	-10.9538
范文	-10.9539
附属	-10.9541
条评论	-10.9541
自行车	-10.9541
颈部	-10.9544
号楼	-10.9546
衬衫	-10.9549
融入	-10.9551
你看	-10.9551
耶	-10.9551
.1	-10.9555
解决问题	-10.9556
紧急	-10.9557
非洲	-10.9557
坝	-10.9562
大方	-10.9567
多家	-10.9569
油耗	-10.9574
难题	-10.9575
期望	-10.9578
步行	-10.9578
ry	-10.9579
];	-10.9579
间的	-10.9579
退休	-10.9583
在家里	-10.9585
更快	-10.9585
雕塑	-10.9587
争取	-10.9588
的支持	-10.9588
内置	-10.959
狮子	-10.959
刚好	-10.9591
大蒜	-10.9591
草原	-10.9591
扩张	-10.9595
奸	-10.9596
124	-10.9597
独家	-10.9601
加点	-10.9602
的标准	-10.9602
无聊	-10.9602
的关键	-10.9603
雕刻	-10.9606
各自	-10.9607
朝阳	-10.9608
外伤	-10.961
让他们	-10.961
以往	-10.9612
委员	-10.9615
6.5	-10.9616
陷入	-10.9616
走过	-10.9619
奇迹	-10.9623
枸杞	-10.9623
乳头	-10.9624
按住	-10.9626
北路	-10.963
解决了	-10.963
精确	-10.9633
耐磨	-10.9634
转发	-10.9636
之内	-10.9636
一脸	-10.9636
的说法	-10.9639
结石	-10.9641
帽子	-10.9641
有可能是	-10.9642
楠	-10.9644
大力	-10.9645
的环境	-10.9646
凑	-10.9647
泄	-10.9652
原文	-10.9656
注明	-10.9656
办学	-10.9657
黑龙江	-10.9662
2.4	-10.9664
绑	-10.9665
莲花	-10.9666
ment	-10.9668
机票	-10.9671
二手房	-10.9676
入学	-10.9677
你能	-10.9678
睡前	-10.9678
视野	-10.9679
失去了	-10.968
同行	-10.9682
(3	-10.9684
人在	-10.9685
状态下	-10.9687
反对	-10.9687
仕	-10.9687
的一款	-10.9688
饲养	-10.9688
2015-	-10.9688
碱性	-10.9689
蹲	-10.969
亲子	-10.969
这个是	-10.9692
你需要	-10.9692
感应	-10.9693
看一下	-10.9693
座位	-10.9694
一体	-10.9695
去找	-10.9695
嘴巴	-10.9696
昏	-10.9697
竿	-10.9699
图纸	-10.97
样子	-10.9701
直达	-10.9701
祛斑	-10.9703
av	-10.9704
还有就是	-10.9704
清热	-10.9709
怎	-10.9711
应对	-10.9711
白云	-10.9712
。(4)	-10.9715
还是很	-10.9716
刷机	-10.9718
菠萝	-10.9718
裕	-10.9718
尹	-10.9718
咏	-10.972
刊	-10.9722
我和	-10.9723
加以	-10.9723
两位	-10.9725
筹	-10.9726
的脸	-10.9729
天赋	-10.9729
小时内	-10.9733
八字	-10.9734
莹	-10.9734
牡丹	-10.9737
倩	-10.974
爱好	-10.974
自带	-10.9741
悲伤	-10.9742
妥	-10.9742
西红柿	-10.9742
站点	-10.9743
了解到	-10.9749
樱花	-10.975
帮助网友	-10.9752
人文	-10.9753
葡萄酒	-10.9754
133	-10.9757
脖子	-10.9757
乐观	-10.9762
运费	-10.9763
导语	-10.9763
阻止	-10.9763
nt	-10.9764
全民	-10.9764
你也	-10.9765
再说	-10.9765
2.2	-10.9765
窗户	-10.9769
的视频	-10.9771
。。。。	-10.9772
终点	-10.9777
弹出	-10.9779
达成	-10.978
发生的	-10.9781
得很	-10.9782
豹	-10.9784
消化不良	-10.9785
睿	-10.9786
潭	-10.9786
丶	-10.9788
改装	-10.9789
撩	-10.9792
黏	-10.9796
眠	-10.9796
轻易	-10.9797
养护	-10.9798
压迫	-10.98
床上	-10.9802
鉴别	-10.9804
终端	-10.9804
同类	-10.9807
年以上	-10.9809
着急	-10.9809
落实	-10.9815
风云	-10.9817
饮酒	-10.9821
学生的	-10.9822
直至	-10.9823
显示屏	-10.9825
延续	-10.9826
em	-10.9826
文本	-10.9828
定时	-10.9828
之地	-10.9832
将于	-10.9834
革	-10.9834
oo	-10.9835
醒来	-10.9835
诱发	-10.9837
咒	-10.9837
ho	-10.9838
请求	-10.9839
cad	-10.9841
指示	-10.9845
的优势	-10.9845
古诗	-10.9847
脊	-10.9848
中含有	-10.9848
殷	-10.985
娟	-10.985
艾滋病	-10.9853
阵容	-10.9853
四川省	-10.9855
影响力	-10.9856
忆	-10.9858
生病	-10.9859
白糖	-10.986
放大	-10.986
纤	-10.9862
彦	-10.9863
兑	-10.9864
生死	-10.9865
店里	-10.9867
280	-10.9867
这点	-10.9867
势力	-10.9869
原来的	-10.987
our	-10.987
微量元素	-10.9872
个性化	-10.9873
空白	-10.9873
样式	-10.9874
に	-10.9874
将在	-10.9876
不满	-10.9876
get	-10.9877
发电机	-10.9878
diy	-10.9878
货源	-10.9879
可以做	-10.9879
杏	-10.988
转速	-10.9883
瞎	-10.9886
胃炎	-10.9887
小腿	-10.989
满了	-10.9891
鞭	-10.9891
顿时	-10.9891
学费	-10.9893
营业执照	-10.9893
较大的	-10.9894
接待	-10.9895
画出	-10.9897
山水	-10.9897
天眼查	-10.9898
哼	-10.9899
备注	-10.9904
善良	-10.9904
可以考虑	-10.9906
this	-10.9907
贵阳	-10.9907
阔	-10.9907
有钱	-10.9908
全体	-10.9909
鸽	-10.9911
小孩子	-10.9913
喜剧	-10.9913
再生	-10.9913
鳞	-10.9914
色泽	-10.9915
一个个	-10.9915
上涨	-10.9915
拱	-10.9916
条相关视频	-10.9917
有过	-10.9918
人看了这个视频返回暂停重播世界如此简单	-10.9921
18.	-10.9922
在北京	-10.9922
小火	-10.9922
再来	-10.9922
微商	-10.9926
的具体	-10.9926
不小心	-10.9927
为自己	-10.9929
yy	-10.9929
硫酸	-10.993
寒冷	-10.993
法规	-10.993
之上	-10.993
3-5	-10.9933
扫码	-10.9934
104	-10.9935
软件大小	-10.9938
综合性	-10.9938
持有	-10.994
开发区	-10.9941
毫克	-10.9943
的知识	-10.9946
她说	-10.9947
部首	-10.9948
奴	-10.9948
的数据	-10.9955
坦	-10.9955
尾巴	-10.9955
人民医院擅长	-10.9955
生产线	-10.9959
ù	-10.9961
条评论暂无报价	-10.9962
更大	-10.9967
是真的	-10.9971
梅花	-10.9971
ofthe	-10.9972
渝	-10.9973
构	-10.9975
的作文	-10.9979
生命的	-10.9981
撤	-10.9982
点击扫描二维码	-10.9983
外地	-10.9987
军人	-10.9988
县城	-10.9988
脾气	-10.9991
石材	-10.9992
的好处	-10.9993
充满了	-10.9994
斌	-10.9996
暑假	-11
屑	-11.0001
皮炎	-11.0003
”,“	-11.0003
模仿	-11.0004
等地	-11.0004
播放器	-11.0005
bug	-11.0006
真假	-11.0007
羡慕	-11.0008
汽车站	-11.001
围绕	-11.0012
因为它	-11.0013
诗歌	-11.0013
用量	-11.0015
编码	-11.0015
齿轮	-11.0017
们的	-11.0017
崩	-11.0018
达到了	-11.0022
小雨	-11.0024
爱的	-11.0025
称之为	-11.0028
开头	-11.0032
要去	-11.0034
116	-11.0036
shi	-11.0041
图书馆	-11.0041
rt	-11.0046
细致	-11.0046
就没	-11.0047
密切	-11.0047
业绩	-11.0048
较高的	-11.0048
也不错	-11.0048
粗糙	-11.005
um	-11.0051
)【	-11.0051
偶像	-11.0051
清淡	-11.0053
爵	-11.0053
另一方面	-11.0055
破裂	-11.0055
两只	-11.0055
的距离	-11.0056
旺盛	-11.0056
度过	-11.0057
理科	-11.0057
有用	-11.0058
乐园	-11.0061
`	-11.0062
增高	-11.0063
同样的	-11.0064
中介	-11.0065
低价	-11.0065
番茄	-11.0066
伐	-11.0068
112	-11.007
包子	-11.0073
古城	-11.0075
专业生产	-11.0075
媳妇	-11.0075
股份	-11.0078
相遇	-11.0082
好玩的	-11.0083
都会有	-11.0084
木材	-11.0087
单一	-11.0087
团购	-11.0089
滞	-11.0092
广播	-11.0097
总会	-11.0097
君子	-11.01
再见	-11.0101
助理	-11.0105
)=	-11.0106
逾期	-11.0108
如下图所示	-11.0109
核实	-11.0112
刷新	-11.0114
的消息	-11.0116
什么意思	-11.0117
葛	-11.0117
完毕	-11.0117
病理	-11.0119
增生	-11.0121
????	-11.0121
答题	-11.0124
铲	-11.0125
绿化	-11.0125
因为他	-11.0127
难受	-11.0129
匀	-11.0129
物料	-11.0132
公益	-11.0132
口红	-11.0133
结束后	-11.0134
血液循环	-11.0135
罢	-11.0135
孕期	-11.0136
0.9	-11.0136
不建议	-11.0137
qi	-11.0137
(4	-11.0141
背部	-11.0142
窦	-11.0142
惜	-11.0143
的品牌	-11.0146
拒	-11.0149
对症治疗	-11.0152
向下	-11.0152
ru	-11.0155
不爱	-11.0156
(6)	-11.0156
徽	-11.0157
碟	-11.0158
娱乐圈	-11.0159
刘海	-11.0161
inthe	-11.0162
真菌	-11.0167
理想的	-11.0167
香水	-11.0169
屏蔽	-11.0171
一对一	-11.0173
发射	-11.0177
帝国	-11.018
我认为	-11.0181
年底	-11.0182
名人	-11.0183
凭证	-11.0183
随时随地	-11.0184
篮	-11.019
观音	-11.0191
白带	-11.0193
风扇	-11.0197
交警	-11.0197
but	-11.0199
保密	-11.0201
》)	-11.0202
117	-11.0202
友情	-11.0203
在那里	-11.0204
公子	-11.0208
浙江省	-11.0211
会产生	-11.0219
最新版	-11.0221
用什么	-11.0222
写出	-11.0222
2.1	-11.0223
强烈的	-11.0225
白色的	-11.0232
都被	-11.0234
渊	-11.0236
海绵	-11.0237
;4.	-11.0238
经营范围	-11.0238
他就	-11.0239
也好	-11.024
斯特	-11.0241
运动员	-11.0242
抬头	-11.0244
也不要	-11.0245
分泌物	-11.0247
关联	-11.0249
ko	-11.0252
是不能	-11.0255
当然是	-11.0255
首饰	-11.0259
燃气	-11.026
19.	-11.0262
天津市	-11.0263
骏	-11.0263
认知	-11.0264
不幸	-11.0264
锯	-11.0265
沫	-11.0268
附加	-11.027
会对	-11.0271
冲动	-11.0272
的性格	-11.0272
帅气	-11.0274
抵抗力	-11.0274
的技术	-11.0275
食欲	-11.0276
;2	-11.0277
常识	-11.0278
旅客	-11.0278
like	-11.028
表情包	-11.028
该怎么	-11.028
实体	-11.028
乐趣	-11.0283
要做	-11.0288
4.0	-11.029
一体化	-11.029
外壳	-11.0292
蓬	-11.0292
喷雾	-11.0293
的第一	-11.0294
白菜	-11.0295
前方	-11.0297
内地	-11.0298
在他	-11.0298
的可能	-11.0299
专项	-11.0301
心思	-11.0301
沉默	-11.0303
car	-11.0304
笔者	-11.0308
诈骗	-11.0308
文中	-11.0308
生殖	-11.0308
全国各地	-11.0311
最多的	-11.0311
感兴趣的	-11.0312
要比	-11.0313
受损	-11.0318
违章	-11.0319
得出	-11.032
主席	-11.032
185	-11.0322
禄	-11.0322
喝水	-11.0326
纠结	-11.033
悟	-11.0336
举报电话	-11.0337
我爱你	-11.0338
树木	-11.034
临床上	-11.034
锁定	-11.0347
在我们	-11.0348
就已经	-11.0348
兄	-11.0348
药店	-11.035
不影响	-11.0351
1600	-11.0352
孔子	-11.0353
慎	-11.0355
1998	-11.0356
的习惯	-11.0359
普及	-11.0364
豆浆	-11.0365
权益	-11.0373
淮	-11.0375
丰胸	-11.0376
对抗	-11.0377
勃起	-11.038
完结	-11.038
额头	-11.0383
交给	-11.0389
从未	-11.039
脑袋	-11.0393
聘	-11.0394
若干	-11.0395
如意	-11.0398
丨	-11.0402
多年的	-11.0405
召开	-11.0406
哲学	-11.0406
相结合	-11.0407
玩的	-11.0408
出汗	-11.0408
紧紧	-11.0408
首选	-11.0409
引用	-11.0409
外国	-11.0411
缩小	-11.0411
硕士	-11.0412
滴滴	-11.0412
加盟店	-11.0414
退货	-11.0415
的伤害	-11.0415
伟大的	-11.0415
关卡	-11.0418
来进行	-11.0418
科学家	-11.0419
框架	-11.0421
较小	-11.0422
珠海	-11.0422
阿姨	-11.0422
没问题	-11.0422
说什么	-11.0424
火灾	-11.0425
头皮	-11.0425
松弛	-11.0427
运转	-11.0428
雀	-11.0428
翅膀	-11.0429
作战	-11.0431
what	-11.0432
实惠	-11.0433
大胆	-11.0433
home	-11.0436
时机	-11.0443
数控	-11.0443
喻	-11.0444
3-4	-11.0444
熟悉的	-11.0444
用过	-11.0445
我要投诉病情分析	-11.0447
风味	-11.0449
奉献	-11.0451
购车	-11.0452
罗马	-11.0453
精细	-11.0456
本周	-11.046
货车	-11.0461
hz	-11.0462
挨	-11.0463
波动	-11.0463
巫	-11.0465
押	-11.0465
瑜伽	-11.047
轿车	-11.047
污水	-11.0471
一起来看看	-11.0472
海军	-11.0472
未来的	-11.0472
供电	-11.0473
下巴	-11.0474
万物	-11.0474
was	-11.0475
衬	-11.0476
癣	-11.0476
品牌的	-11.0478
想去	-11.0481
ig	-11.0483
水质	-11.0485
说出	-11.0487
免长途费	-11.0488
疗程	-11.0488
全集	-11.0488
法人	-11.0491
塑造	-11.0493
因为你	-11.0493
多为	-11.0495
对战	-11.0495
知道了	-11.0497
的思想	-11.05
函	-11.05
含义	-11.05
儒	-11.0501
与其他	-11.0502
送到	-11.0503
来源于	-11.0503
批评	-11.0504
不做	-11.0505
担保	-11.0506
的角度	-11.0506
讲述了	-11.0507
四年	-11.0508
人民政府	-11.0508
渗	-11.0508
的费用	-11.0509
详细介绍	-11.0509
慢慢的	-11.051
更容易	-11.051
改编	-11.0512
人人	-11.0515
这本书	-11.052
ance	-11.052
做完	-11.0521
找回	-11.0523
球员	-11.0526
logo	-11.0526
腐蚀	-11.053
之时	-11.053
正规的	-11.0533
很多的	-11.0533
充电器	-11.0536
不愿	-11.0536
人评价	-11.0536
分钟左右	-11.0537
按下	-11.0541
舱	-11.0542
宗教	-11.0543
存放	-11.0544
音量	-11.0544
使命	-11.055
大哥	-11.0552
手续费	-11.0552
温州	-11.0553
简历	-11.0553
履行	-11.0553
烹饪	-11.0554
此前	-11.0554
说起	-11.0562
该如何	-11.0563
档次	-11.0563
的用户	-11.0564
弟子	-11.0564
空腹	-11.0566
天上	-11.0568
嘴唇	-11.0569
差评	-11.0572
湿润	-11.0576
游览	-11.0578
做爱	-11.058
盈利	-11.0582
考点	-11.0585
能在	-11.0585
时长	-11.0585
ui	-11.0585
与其	-11.0592
发病时间	-11.0592
典型的	-11.0594
可以帮助	-11.0596
碎片	-11.0597
残留	-11.0599
加水	-11.0601
一幅	-11.0601
ee	-11.0601
优美	-11.0604
黛	-11.0607
化的	-11.0608
民警	-11.061
抖	-11.0611
罚款	-11.0612
ctrl	-11.0613
做工	-11.0615
没错	-11.0616
买房	-11.0617
灰尘	-11.0617
洗涤	-11.0619
就知道	-11.0619
suv	-11.062
颈椎病	-11.0626
相册	-11.0626
:100	-11.0628
小镇	-11.0631
梦中	-11.0632
保暖	-11.0633
侧面	-11.0633
吃鸡	-11.0637
杉	-11.0638
痛经	-11.0641
板材	-11.0641
的相关	-11.0643
。2018	-11.0646
处处	-11.065
普通话	-11.0656
ear	-11.0657
主要用于	-11.0658
曹操	-11.0659
扬州	-11.066
淫秽	-11.0661
都需要	-11.0662
附近的	-11.0664
市面上	-11.0664
距今	-11.0664
健脾	-11.0671
沙漠	-11.0675
少了	-11.0675
不等	-11.0675
者的	-11.0677
新娘	-11.0679
市场的	-11.068
可以把	-11.0682
001	-11.0683
灿烂	-11.0684
斗争	-11.0684
这份	-11.0688
原材料	-11.0689
许多人	-11.0689
均衡	-11.0691
有关系	-11.0695
歪	-11.0697
nba	-11.0701
的玩家	-11.0703
have	-11.0703
无穷	-11.0704
审查	-11.0708
物业	-11.0708
可以看出	-11.0711
周年	-11.0712
足以	-11.0712
天猫	-11.0715
vo	-11.0715
上次	-11.0715
壹	-11.0716
2500	-11.0716
签证	-11.0718
拆除	-11.0718
演绎	-11.0719
杆菌	-11.072
的身份	-11.072
的办法	-11.0721
赞回应收藏投诉	-11.0722
粪	-11.0723
毛病	-11.0723
赢得	-11.0725
主要症状	-11.0731
按时	-11.0733
得以	-11.0733
个别	-11.0734
▁首页	-11.0736
好转	-11.0737
sm	-11.0738
第二章	-11.0739
域名	-11.074
公分	-11.074
溃疡	-11.0742
原子	-11.0743
新城	-11.0745
ea	-11.0747
青海	-11.0748
电线	-11.075
某一	-11.0751
象征	-11.0752
集合	-11.0752
里程	-11.0753
影像	-11.0753
零件	-11.0753
-0	-11.0755
来到了	-11.0757
直销	-11.0757
当下	-11.0758
sy	-11.076
貌	-11.076
财政	-11.076
让大家	-11.0761
除非	-11.0762
打赏	-11.0763
就医	-11.0764
不支持	-11.0769
投稿	-11.077
下车	-11.0772
只不过	-11.0772
(7)	-11.0772
饱满	-11.0774
得多	-11.0774
老师的	-11.0775
礼仪	-11.078
际	-11.0781
小伙伴	-11.0781
毛发	-11.0785
解读	-11.0785
人格	-11.0786
经营性	-11.0788
天前	-11.0789
长途	-11.0793
的服务	-11.0793
逝	-11.0794
产权	-11.0794
货品	-11.0795
的比例	-11.0796
的安全	-11.0797
氧气	-11.0797
法师	-11.0797
霉	-11.0798
右键	-11.08
?【	-11.0801
均价	-11.0802
雯	-11.0803
é	-11.0803
专卖店	-11.0804
电子商务	-11.0805
证实	-11.0805
财运	-11.0807
一圈	-11.0808
看似	-11.0808
订购	-11.0809
把他	-11.0809
喘	-11.0809
队友	-11.0811
面上	-11.0811
艰难	-11.0812
颇	-11.0812
笛	-11.0814
我去	-11.0815
家乡	-11.0815
对方的	-11.0817
新鲜的	-11.0818
一般都	-11.082
扒	-11.0821
占地面积	-11.0822
抑郁症	-11.0823
路径	-11.0825
反义词	-11.0828
标记	-11.0828
厉	-11.0829
刹	-11.0829
气味	-11.0832
也比较	-11.0832
赛事	-11.0833
庞	-11.0835
8.1	-11.0836
是通过	-11.0837
的心理	-11.0839
分散	-11.0839
搭载	-11.0841
二手车	-11.0843
等你	-11.0843
因子	-11.0844
汉语	-11.0844
吃完	-11.0846
泊	-11.0852
整齐	-11.0856
疹	-11.0856
绿豆	-11.0856
招聘信息	-11.0859
古人	-11.086
然后用	-11.086
智能手机	-11.0864
惟	-11.0865
你不	-11.0865
变压器	-11.0866
战队	-11.0866
大米	-11.0867
恐	-11.0868
修炼	-11.0869
均有	-11.0873
pt	-11.0874
日语	-11.0875
行李	-11.0875
身后	-11.0879
类的	-11.0881
日报	-11.0882
极大	-11.0882
米饭	-11.0882
当代	-11.0888
吃过	-11.089
买到	-11.0891
团体	-11.0892
不明	-11.0893
什么都	-11.0893
学者	-11.0894
学位	-11.0898
的空间	-11.0899
一个是	-11.0899
粮食	-11.0899
cy	-11.0901
一同	-11.0901
透气	-11.0902
侵犯	-11.0904
闺蜜	-11.0904
电视台	-11.0904
结算	-11.0905
实现了	-11.0906
转身	-11.0906
暂无信息	-11.0906
烟台	-11.0907
编剧	-11.0908
图文	-11.0909
这样做	-11.091
镀锌	-11.0912
有力	-11.0912
或其他	-11.0915
特定	-11.0915
触摸	-11.0915
缩短	-11.0916
211	-11.0919
眉毛	-11.0919
坪	-11.0921
导读	-11.0927
xxx	-11.0927
建筑物	-11.0928
转向	-11.0929
狐狸	-11.0933
预定	-11.0935
56.	-11.0935
穗	-11.0937
水温	-11.0937
同一个	-11.0938
除此之外	-11.0938
2020	-11.0939
?1、	-11.0939
/3	-11.094
排毒	-11.094
复印件	-11.0942
升降	-11.0945
了解一下	-11.0945
如下图	-11.0945
公示	-11.0946
嫌	-11.0947
开始了	-11.0948
常年	-11.0952
已知	-11.0952
粉色	-11.0953
自杀	-11.0954
效果好	-11.0954
....	-11.0958
134	-11.0958
1/2	-11.0958
yu	-11.096
即时	-11.0962
的核心	-11.0963
马路	-11.0964
所有人	-11.0967
接头	-11.0967
的温度	-11.0968
聚会	-11.0968
筛选	-11.097
彩虹	-11.097
119	-11.0971
后面的	-11.0971
设计的	-11.0972
的一切	-11.0972
及其他	-11.0972
窑	-11.0972
地狱	-11.0974
病症	-11.0974
ktv	-11.0975
中式	-11.0976
屯	-11.0976
士兵	-11.0977
僵尸	-11.0977
压缩机	-11.0977
点的	-11.0981
分别为	-11.0983
酮	-11.0984
剩	-11.0984
每人	-11.0985
精油	-11.0988
诊治	-11.0988
说完	-11.0988
存款	-11.0989
创伤	-11.0992
乘客	-11.0994
糯米	-11.0997
质感	-11.0997
辨别	-11.0998
内容的真实性	-11.0999
阳痿	-11.1001
的危害	-11.1001
嘴里	-11.1002
之心	-11.1004
但是在	-11.1006
近义词	-11.1006
必要时	-11.101
经典的	-11.1012
默默	-11.1013
注意力	-11.1013
振动	-11.1016
修理	-11.1017
精液	-11.1017
澜	-11.1017
坐标	-11.1018
很高的	-11.1019
/4	-11.1021
蓉	-11.1022
传媒	-11.1022
地区的	-11.1023
去看看	-11.1023
起名	-11.1028
洗干净	-11.1029
▁作者	-11.1029
磨损	-11.103
156	-11.1031
球队	-11.1031
找出	-11.1032
怎么回事	-11.1032
子宫肌瘤	-11.1032
爱上	-11.1034
这篇	-11.1034
过大	-11.1035
火焰	-11.1037
瀑布	-11.1037
争议	-11.1037
码头	-11.104
晚期	-11.1042
馒头	-11.1042
分成	-11.1043
起床	-11.1043
纪律	-11.1045
也都	-11.1047
159	-11.1049
过高	-11.105
除外	-11.105
是什么原因	-11.1051
速度快	-11.1051
得意	-11.1054
发布人	-11.1057
红豆	-11.1057
pr	-11.1059
保修	-11.1059
狱	-11.106
哄	-11.1063
蘑菇	-11.1063
制动	-11.1063
隧道	-11.1064
空中	-11.1065
影院	-11.1065
拐	-11.1067
亮度	-11.1068
菜品	-11.1068
穴位	-11.1069
132	-11.1069
请你	-11.107
专注于	-11.1072
细心	-11.1073
约为	-11.1074
身心	-11.1075
但也	-11.1077
加拿大	-11.1077
ang	-11.1083
震撼	-11.1084
到底是	-11.1084
用手机	-11.1086
脸色	-11.1089
ja	-11.1089
大桥	-11.1095
想了解	-11.1095
焦点	-11.1096
可使	-11.1096
权力	-11.1098
匠	-11.1098
全是	-11.1098
菩萨	-11.1099
不存在	-11.11
誉	-11.1102
划算	-11.1103
词汇	-11.1108
插件	-11.1111
恭	-11.1115
特种	-11.1116
cha	-11.1116
带你	-11.1118
为一体的	-11.1121
掩	-11.1123
不仅仅是	-11.1124
螺	-11.1125
熟练	-11.1125
射击	-11.1126
即便	-11.1127
据悉	-11.1127
跟随	-11.1131
钢板	-11.1132
首发	-11.1133
闯	-11.1136
幽默	-11.1138
优良	-11.1139
最初	-11.114
酯	-11.114
看得	-11.1143
热水器	-11.1145
真实的	-11.1146
正宗	-11.1146
挖掘	-11.1147
享有	-11.1147
晃	-11.1147
事儿	-11.1148
下一步	-11.1149
回应收藏投诉	-11.1149
以下是	-11.1151
标注	-11.1153
诸葛亮	-11.1153
调料	-11.1154
难过	-11.1154
爸爸妈妈	-11.1154
不禁	-11.1155
手感	-11.1156
全市	-11.1158
发布的	-11.1161
臀	-11.1162
就是一个	-11.1163
260	-11.1163
十足	-11.1163
自定义	-11.1165
这首歌	-11.1166
亲密	-11.1167
接线	-11.1167
排便	-11.117
人参	-11.117
遭到	-11.1171
过年	-11.1172
这个世界	-11.1176
对她	-11.1176
医保	-11.1181
2.3	-11.1181
未经	-11.1184
复杂的	-11.1185
骨骼	-11.1185
另一种	-11.1185
承包	-11.1187
剧中	-11.1188
澳门	-11.119
ao	-11.1192
公平	-11.1196
ot	-11.1198
186	-11.1198
那时候	-11.1201
吃药	-11.1201
了他	-11.1201
囊肿	-11.1202
占据	-11.1202
侵	-11.1204
带动	-11.1204
恶魔	-11.1206
麻醉	-11.1209
现状	-11.1209
?2019	-11.1211
的房子	-11.1211
??/??	-11.1212
意思是	-11.1212
70%	-11.1213
要多	-11.1213
。8.	-11.1217
梦幻	-11.1218
不会有	-11.122
身边的	-11.1224
原装	-11.1225
原标题	-11.1227
叔叔	-11.1229
187	-11.123
155	-11.1233
婆婆	-11.1236
下雨	-11.1237
婴	-11.1237
触发	-11.1237
橘	-11.1237
穿过	-11.1238
角落	-11.1239
报销	-11.1239
高峰	-11.124
资深	-11.1241
了自己的	-11.1241
保险公司	-11.1242
ver	-11.1242
陌	-11.1242
说我	-11.1245
组成的	-11.1247
无忧	-11.1247
兼职	-11.1248
羞	-11.1249
高潮	-11.1249
相关知识	-11.1251
望着	-11.1253
1996	-11.1253
活性炭	-11.1254
辽	-11.1255
韭菜	-11.1256
西湖	-11.1257
邻居	-11.1258
卸	-11.1258
建筑面积	-11.1259
有利	-11.1261
新年	-11.1262
紧密	-11.1265
目的地	-11.1266
对称	-11.1266
▁我	-11.1267
又能	-11.1268
√	-11.1268
忽视	-11.1268
后者	-11.1269
ins	-11.1271
冰糖	-11.1273
mate	-11.1273
住在	-11.1274
欢迎您	-11.1278
碘	-11.128
过去了	-11.128
双眼皮	-11.1282
vr	-11.1283
真人	-11.1284
不仅是	-11.1284
.5	-11.1284
香气	-11.1288
发病率	-11.129
野生	-11.1291
南瓜	-11.1292
103	-11.1297
较好的	-11.1298
呼吸道	-11.13
其中的	-11.1302
第三章	-11.1303
日起	-11.1306
age	-11.1307
伪	-11.1309
埃	-11.131
泰山	-11.131
的文章	-11.1311
不孕不育	-11.1312
提起	-11.1317
华夏	-11.1317
新陈代谢	-11.1319
伍	-11.132
wo	-11.1322
官方网站	-11.1323
三人	-11.1323
剩下的	-11.1326
咱	-11.1326
综	-11.1326
3)	-11.1334
大事	-11.1334
的应用	-11.1337
吵	-11.1337
dc	-11.1343
好朋友	-11.1344
红酒	-11.1346
▁《	-11.1347
的那	-11.1348
笔试	-11.1349
祛	-11.1353
要点	-11.1354
总数	-11.1356
作曲	-11.1357
天气预报	-11.136
service	-11.136
爆料	-11.136
萎缩	-11.1363
运营商	-11.1364
发起	-11.1365
博客	-11.1366
觉得自己	-11.1366
庚	-11.1366
喜欢吃	-11.1367
职责	-11.1367
;(2)	-11.1369
面条	-11.1369
辩	-11.1369
强力	-11.1371
外墙	-11.1372
粘贴	-11.1372
初级	-11.1373
貌似	-11.1374
立马	-11.1374
▁女	-11.1374
克服	-11.1376
拓	-11.1383
旦	-11.1384
脱水	-11.1385
腰部	-11.1386
繁华	-11.1387
1-3	-11.1392
下图	-11.1393
山药	-11.1393
回合	-11.1393
电磁	-11.1394
有毒	-11.1395
主页	-11.1395
企业的	-11.1395
先把	-11.1397
穿上	-11.1398
源于	-11.1399
同城	-11.1399
海拔	-11.14
桥梁	-11.1402
强势	-11.1403
进攻	-11.1405
剧烈	-11.1407
隔音	-11.141
寡	-11.1411
冷水	-11.1411
个字	-11.1412
递	-11.1412
营造	-11.1413
运作	-11.1414
背面	-11.1415
信仰	-11.1417
宁夏	-11.1418
线下	-11.1421
的压力	-11.1421
援	-11.1421
自己喜欢的	-11.1423
爱国	-11.1424
点击进入	-11.1425
答应	-11.1426
暑	-11.1428
无所	-11.1428
橱柜	-11.1429
干什么	-11.1431
类似问题	-11.1432
财经	-11.1435
喜欢你	-11.1436
有两种	-11.1437
颂	-11.1437
卫星	-11.1439
上衣	-11.144
输入法	-11.1442
节假日通用	-11.1442
拥抱	-11.1442
朋	-11.1443
来自于	-11.1443
沙滩	-11.1446
乾	-11.1448
轨道	-11.1448
愤怒	-11.1449
的经验	-11.1454
??2019	-11.1455
针对性	-11.1457
弹簧	-11.1462
胶带	-11.1463
外卖	-11.1463
没关系	-11.1468
不开	-11.1468
世界的	-11.1471
的形象	-11.1471
仪表	-11.1472
媚	-11.1472
排骨	-11.1472
假期	-11.1474
床垫	-11.1476
可通过	-11.1477
ya	-11.1482
化验	-11.1482
臀部	-11.1483
水箱	-11.1483
年级	-11.1483
子宫内膜	-11.1485
然后点击	-11.1488
尖锐湿疣	-11.1491
擦拭	-11.1491
月初	-11.1491
不通	-11.1492
许可证	-11.1493
-50	-11.1493
家装	-11.1494
屎	-11.1494
最具	-11.1495
归来	-11.1495
.3	-11.1496
低下	-11.1496
斋	-11.1499
驾驶证	-11.1499
概述	-11.1502
饶	-11.1503
幸福的	-11.1505
明白了	-11.1506
阳性	-11.1511
尽在	-11.1511
学校的	-11.1513
china	-11.1513
小小	-11.1516
方程	-11.1516
浙	-11.1519
的健康	-11.1519
眸	-11.152
祛痘	-11.1521
还得	-11.1521
『	-11.1521
好吧	-11.1525
不让	-11.1525
还有很多	-11.1525
得分	-11.1526
就连	-11.1528
笨	-11.1528
表皮	-11.153
明月	-11.1532
已经是	-11.1532
较少	-11.1532
电视机	-11.1534
的儿子	-11.1535
高科技	-11.154
下单	-11.1541
2012-	-11.1541
睾丸	-11.1543
已经成为	-11.1543
相思	-11.1546
产生了	-11.1548
立方	-11.1548
向往	-11.1549
总有	-11.155
最爱	-11.155
龟头	-11.155
贡	-11.1551
海参	-11.1551
』	-11.1551
管理员	-11.1552
用作	-11.1552
吉他	-11.1553
一笔	-11.1554
履	-11.1554
550	-11.1555
的角色	-11.1556
多年来	-11.1556
禽	-11.1557
ten	-11.156
生于	-11.156
各种各样的	-11.1561
听见	-11.1562
戳	-11.1563
犹如	-11.1564
是我国	-11.1566
矿物质	-11.1566
note	-11.1568
各方面	-11.1568
构造	-11.1571
挺好的	-11.1571
棱	-11.1571
韩版	-11.1573
结尾	-11.1573
气氛	-11.1574
楼上	-11.1575
的音乐	-11.1576
在全国	-11.1576
小便	-11.1577
霖	-11.1577
超出	-11.1578
一定要注意	-11.1582
复古	-11.1583
就是在	-11.1583
大片	-11.1583
玄幻	-11.1583
年限	-11.1583
条例	-11.1584
发言	-11.1584
一顿	-11.1585
大火	-11.1588
过量	-11.1589
梓	-11.159
喇叭	-11.1591
能使	-11.1592
ú	-11.1592
210	-11.1592
年后	-11.1594
公安机关	-11.1596
1.7	-11.1596
往下	-11.1597
排序	-11.1597
太过	-11.1599
骗子	-11.16
fu	-11.1603
绣	-11.1603
全方位	-11.1604
235	-11.1604
年份	-11.1604
ong	-11.1604
乳腺	-11.1605
称呼	-11.1608
天涯	-11.161
试听	-11.1611
我们都	-11.1611
要在	-11.1611
要素	-11.1613
平方公里	-11.1616
遵循	-11.1616
bt	-11.1616
付费	-11.1617
油炸	-11.1617
不堪	-11.1623
万像素	-11.1623
器材	-11.1623
早晚	-11.1625
身为	-11.1628
看书	-11.1628
上帝	-11.163
决策	-11.1631
当我	-11.1633
兜	-11.1634
pdf	-11.1638
不能吃	-11.1638
书中	-11.1638
–	-11.164
照射	-11.1641
哪个好	-11.1642
受到了	-11.1643
承接	-11.1645
价钱	-11.1645
果汁	-11.1646
跟踪	-11.1648
这些都是	-11.165
期货	-11.165
我看	-11.165
收藏投诉	-11.1653
盼	-11.1654
诱惑	-11.1654
发炎	-11.1655
海尔	-11.1656
请勿	-11.1656
165	-11.1657
灼	-11.1657
发光	-11.1659
热度	-11.1659
为了让	-11.166
中国大陆	-11.1661
取决于	-11.1662
膀胱	-11.1663
湖北省	-11.1663
230	-11.1664
304	-11.1664
携手	-11.1665
一直是	-11.167
电量	-11.167
不好意思	-11.1673
豫	-11.1674
马力	-11.1676
唯美	-11.1676
希望大家	-11.1676
亲戚	-11.1676
为大家带来	-11.1677
偶然	-11.1678
偷偷	-11.168
瘦身	-11.1682
悠	-11.1684
奖金	-11.1685
那你	-11.1687
男科	-11.1687
约会	-11.1687
真皮	-11.1688
卦	-11.1689
自家	-11.1689
澄	-11.169
0000	-11.1693
古镇	-11.1693
信赖	-11.1693
名片	-11.1696
十大品牌	-11.1696
两个月	-11.1698
棕	-11.1698
异地	-11.17
的女孩	-11.1701
无情	-11.1702
几分钟	-11.1702
看病	-11.1703
与你	-11.1704
董事长	-11.1705
花开	-11.1706
老子	-11.1707
荨麻疹	-11.1711
一期	-11.1715
食疗	-11.1716
í	-11.1716
是目前	-11.1717
我已经	-11.1719
演技	-11.1719
钢铁	-11.1721
卡片	-11.1722
违规	-11.1723
熏	-11.1723
度假	-11.1727
人生的	-11.1727
愚	-11.1727
小说网	-11.1729
宝马	-11.1729
霸气	-11.173
红色的	-11.173
免费下载	-11.1731
芙	-11.1731
1997	-11.1731
诸多	-11.1732
也叫	-11.1732
解决方法	-11.1737
传动	-11.1738
引擎	-11.1738
进而	-11.1739
服务中心	-11.1739
潜力	-11.1739
请关注	-11.1741
满意的	-11.1742
决心	-11.1743
的电影	-11.1743
测定	-11.1743
第九	-11.1746
武侠	-11.1746
喷涂	-11.1747
书记	-11.1747
所以我	-11.175
比较高	-11.175
货架	-11.1752
淑	-11.1752
例句	-11.1753
表白	-11.1753
如果在	-11.1755
详	-11.1756
街头	-11.1756
负荷	-11.1761
考虑到	-11.1761
精度	-11.1762
公元	-11.1762
各有	-11.1765
在美国	-11.1766
inc	-11.1767
车载	-11.178
传来	-11.1781
沿着	-11.1781
艺人	-11.1783
铃声	-11.1783
第四章	-11.1785
但是我	-11.1786
mar	-11.1786
国家级	-11.1788
三亚	-11.1793
nbsp	-11.1793
小女孩	-11.1794
媛	-11.1796
也被	-11.1796
哪怕	-11.1798
崖	-11.1798
趁	-11.1799
克斯	-11.1802
拿起	-11.1802
麒麟	-11.1803
。10、	-11.1804
攀	-11.1807
sohu	-11.1808
完成了	-11.1812
我的心	-11.1812
当地的	-11.1813
这个人	-11.1813
时空	-11.1814
是属于	-11.1816
淫	-11.1817
做人	-11.1819
岚	-11.1821
不出来	-11.1821
走势	-11.1821
抗体	-11.1823
126	-11.1824
品味	-11.1827
彼	-11.1829
大声	-11.183
身子	-11.1831
海报	-11.1832
121	-11.1834
建立了	-11.1835
离不开	-11.1836
欧式	-11.1837
加固	-11.1838
同时还	-11.1839
进程	-11.184
死的	-11.1844
翻炒	-11.1844
爱人	-11.1845
相爱	-11.1847
用人单位	-11.1848
第十	-11.1849
独自	-11.185
许可	-11.185
回来了	-11.185
进展	-11.1852
主打	-11.1855
汉族	-11.1855
验证码	-11.1857
好听	-11.1859
は	-11.1859
有很大的	-11.186
lan	-11.1861
不明白	-11.1861
我就是	-11.1862
换了	-11.1868
让它	-11.1868
劳动者	-11.1869
等各种	-11.187
4)	-11.1871
吊顶	-11.1871
央视	-11.1874
保安	-11.1875
但他	-11.1877
数据库	-11.1879
车牌	-11.1879
一头	-11.1882
天内	-11.1883
微信扫一扫	-11.1884
宽松	-11.1886
女主角	-11.1889
成熟的	-11.1889
伸缩	-11.1889
zi	-11.189
浑身	-11.189
过分	-11.1891
防爆	-11.1894
足够的	-11.1895
近几年	-11.1896
卫视	-11.1896
几点	-11.1896
总统	-11.1898
协商	-11.1899
爱美	-11.1899
怎么说	-11.19
应急	-11.19
播种	-11.1901
我又	-11.1902
分钟后	-11.1902
硅胶	-11.1904
乙肝	-11.1905
表现出	-11.1905
mail	-11.1906
女性的	-11.1906
ag	-11.1907
粉末	-11.191
酿	-11.1911
时代的	-11.1911
不准	-11.1911
丈	-11.1911
2.8	-11.1912
关注问题写回答邀请回答添加评论分享	-11.1912
113	-11.1913
通关	-11.1913
顶部	-11.1913
起诉	-11.1915
食堂	-11.1916
安全性	-11.1918
有一次	-11.192
短发	-11.1922
的小伙伴	-11.1923
引领	-11.1923
饭后	-11.1926
的因素	-11.1927
目光	-11.1928
dn	-11.1929
序号	-11.193
已售	-11.1934
釉	-11.1935
蜘蛛	-11.1936
相差	-11.1937
膝盖	-11.1937
恐怕	-11.1942
蛙	-11.1942
流出	-11.1944
湖南省	-11.1944
饮品	-11.1944
疑惑	-11.1945
车次	-11.1945
最适合	-11.1947
可选	-11.1947
est	-11.1947
人民医院	-11.1949
小麦	-11.1949
却不	-11.195
122	-11.1951
八卦	-11.1953
淡淡的	-11.1953
这样才能	-11.1955
厢	-11.1955
嗨	-11.1959
1800	-11.1961
蓝光画质	-11.1961
特色的	-11.1961
塑胶	-11.1963
节第	-11.1964
儿女	-11.1964
吃什么	-11.1965
一件事	-11.1965
出道	-11.1965
特产	-11.1966
洋葱	-11.1966
做得	-11.1967
燥	-11.197
开拓	-11.1971
战胜	-11.1972
批量	-11.1977
客运	-11.1981
↑	-11.1981
研制	-11.1986
太平	-11.1986
解毒	-11.1987
告别	-11.1988
邮编	-11.1988
被子	-11.1992
媒	-11.1992
洁净	-11.1993
姨	-11.1994
鼻炎	-11.1994
劳累	-11.1995
美化	-11.1996
凸	-11.1996
三倍流畅播放	-11.1996
正义	-11.1998
就用	-11.2001
眼神	-11.2001
百分之	-11.2003
je	-11.2005
之前的	-11.2006
你怎么	-11.2006
女王	-11.2008
wa	-11.2009
荣获	-11.2012
疏通	-11.2013
头脑	-11.2014
毛泽东	-11.2018
却又	-11.2019
摆脱	-11.2019
一切都	-11.202
mod	-11.2026
盲目	-11.2026
175	-11.2026
愣	-11.2027
当今	-11.2029
无任何	-11.203
怎么用	-11.2032
购房	-11.2035
舌头	-11.2037
队员	-11.2037
动手	-11.2038
和我	-11.2038
40%	-11.2038
职业技术学院	-11.204
天左右	-11.2041
项链	-11.2042
命名	-11.2042
邀	-11.2043
双击	-11.2044
励志	-11.2044
月光	-11.2045
20.	-11.2045
一千	-11.2046
知名度	-11.2048
外语	-11.2048
迷你	-11.2048
参照	-11.205
中级	-11.2051
当我们	-11.2053
两句	-11.2055
迫	-11.2056
下班	-11.2057
名医	-11.2058
深处	-11.2058
的活动	-11.2058
添加评论分享收藏感谢收起	-11.2059
不已	-11.206
坚决	-11.2063
听了	-11.2065
貔貅	-11.2065
肩膀	-11.2066
人体的	-11.2066
仗	-11.2068
中原	-11.2075
蓄	-11.2076
谨	-11.2076
讲话	-11.2076
疆	-11.2078
创始人	-11.2078
调试	-11.2079
还未	-11.2079
丧失	-11.208
咨询热线	-11.208
谜	-11.2081
根本不	-11.2081
葡萄糖	-11.2081
*1	-11.2083
活血	-11.2083
音箱	-11.2084
报纸	-11.2087
响应	-11.2088
拯救	-11.209
综艺	-11.2091
可以先	-11.2091
只有一个	-11.2092
新浪	-11.2093
夜晚	-11.2093
的社会	-11.2095
pos	-11.2096
裹	-11.2097
初始	-11.2097
ec	-11.2098
昆	-11.2098
匿名	-11.2098
勇气	-11.21
太多了	-11.21
安徽省	-11.2102
比较好的	-11.2103
红薯	-11.2107
取得了	-11.2107
这张	-11.2108
气象	-11.2108
注定	-11.2109
don	-11.211
老大	-11.211
顺便	-11.2111
征信	-11.2111
沁	-11.2112
氨酸	-11.2112
带给	-11.2112
切除	-11.2113
大家可以	-11.2113
等问题	-11.2114
会很	-11.2118
演讲	-11.2121
续航	-11.2122
挫折	-11.2123
于一体的	-11.2124
面团	-11.2124
sl	-11.2125
破碎	-11.2126
520	-11.2126
可以将	-11.2126
gra	-11.2127
只见	-11.2127
意向	-11.2127
澳	-11.2127
提现	-11.2128
变动	-11.2128
应聘	-11.2129
鉴	-11.2129
生活在	-11.213
pm	-11.2133
mpa	-11.2133
偿	-11.2133
163	-11.2134
寅	-11.2136
检查一下	-11.2136
结晶	-11.2138
png	-11.2139
脾胃	-11.214
重庆市	-11.2146
经历了	-11.2146
名叫	-11.2147
的话就	-11.2148
紊乱	-11.2151
非常重要	-11.2152
你有	-11.2153
先用	-11.2153
当时的	-11.2153
的图片	-11.2153
可以根据	-11.2154
秤	-11.2154
忽略	-11.2154
概率	-11.2155
日照	-11.2155
的部位	-11.2156
太阳能	-11.2157
4.2	-11.2158
新颖	-11.2158
徐州	-11.2158
支出	-11.2158
绿茶	-11.2159
馅	-11.216
就不能	-11.2162
...?	-11.2164
常州	-11.2171
面相	-11.2171
裁	-11.2171
廷	-11.2172
茨	-11.2173
成立时间	-11.2177
定价	-11.2178
其他人	-11.2178
日至	-11.2181
心脏病	-11.2181
绵	-11.2182
疙瘩	-11.2183
手机上	-11.2186
青春期	-11.2187
中路	-11.2188
小鸟	-11.2192
督	-11.2194
心得	-11.2195
互联网药品信息服务资格证书	-11.2195
的研究	-11.2197
排放	-11.2199
路边	-11.2199
枕头	-11.2199
root	-11.22
放假	-11.22
冷藏	-11.22
dd	-11.2201
な	-11.2203
你现在	-11.2207
叙述	-11.2207
出于	-11.2207
打工	-11.2209
说着	-11.2211
劈	-11.2215
快手	-11.222
十字	-11.2221
贫困	-11.2221
安心	-11.2224
更好地	-11.2225
抵押	-11.2226
的材料	-11.2227
廊	-11.2228
will	-11.2229
8.0	-11.2229
但却	-11.2229
耍	-11.2231
梦到	-11.2231
650	-11.2233
苔	-11.2233
当作	-11.2233
我们是	-11.2235
介质	-11.2236
占地	-11.2238
已成为	-11.2239
海淀	-11.224
more	-11.2242
贵族	-11.2242
拧	-11.2242
路面	-11.2243
万能	-11.2244
了下来	-11.2245
转变	-11.2247
微生物	-11.2252
今天的	-11.2253
滋味	-11.2253
尿道	-11.2254
旗舰	-11.2255
日益	-11.2256
翅	-11.2257
贯	-11.2258
之际	-11.2259
图中	-11.226
的句子	-11.2262
词典	-11.2262
客户的	-11.2262
dy	-11.2262
ǐ	-11.2263
堆积	-11.2263
美景	-11.2264
挤压	-11.2264
消灭	-11.2265
可用于	-11.2266
激励	-11.2269
交友	-11.227
山路	-11.227
户籍	-11.2271
如果说	-11.2272
它们的	-11.2272
奇怪	-11.2272
并将	-11.2275
的喜爱	-11.2276
分区	-11.2278
ant	-11.2279
不信	-11.228
五大	-11.228
这不是	-11.2283
!“	-11.2284
雌激素	-11.2285
门槛	-11.2287
渴	-11.2287
在外	-11.2287
的女生	-11.2287
也不知道	-11.2288
的疾病	-11.2289
全日制	-11.2289
双眼	-11.229
总经理	-11.2291
tor	-11.2291
不代表	-11.2291
榴莲	-11.2295
等功能	-11.2295
qu	-11.2297
此处	-11.2298
弥	-11.2298
平稳	-11.2299
避孕	-11.2299
介绍一下	-11.23
培育	-11.23
疣	-11.23
静电	-11.2302
的文件	-11.2302
光照	-11.2305
->	-11.2307
理性	-11.2309
缓存	-11.231
第五章	-11.231
肤色	-11.2311
概括	-11.2311
钳	-11.2312
全省	-11.2313
杀手	-11.2314
冷静	-11.2315
再去	-11.2318
呗	-11.2318
的运动	-11.2319
气势	-11.232
包邮	-11.232
数十	-11.2321
落在	-11.2321
秩序	-11.2322
彻	-11.2324
的概念	-11.2327
阿里	-11.2331
已经有	-11.2335
以防	-11.2335
严肃	-11.2337
搞定	-11.2339
绝对是	-11.234
还是比较	-11.234
3.2	-11.2341
from	-11.2341
研究所	-11.2341
渍	-11.2342
耐用	-11.2342
笔记	-11.2342
中华民族	-11.2342
型的	-11.2347
平整	-11.2349
如果你觉得	-11.2349
问问	-11.235
全面的	-11.2351
前提	-11.2352
糟	-11.2353
毛囊	-11.2353
服药	-11.2354
推出了	-11.2354
巴黎	-11.2356
129	-11.2357
60%	-11.2359
机电	-11.2359
鸡肉	-11.2359
谁知道	-11.236
潍坊	-11.2361
为宜	-11.2362
前景	-11.2366
哪家好	-11.2366
316	-11.2368
在生活中	-11.2369
搭建	-11.2369
交通事故	-11.2369
let	-11.237
歇	-11.2371
西班牙	-11.2372
毫	-11.2372
新版	-11.2372
滑动	-11.2372
饵	-11.2372
能吃	-11.2373
女方	-11.2375
中年	-11.2376
一起去	-11.2377
越南	-11.2378
jo	-11.238
椅子	-11.238
贩	-11.2382
某某	-11.2384
促使	-11.2385
何时	-11.2385
:010-5	-11.2388
具体情况	-11.2389
没法	-11.239
变态	-11.239
所示	-11.239
望采纳	-11.2394
你的情况	-11.2394
肿胀	-11.2397
一种是	-11.2397
个小	-11.2398
2+	-11.2398
网游	-11.24
睫毛	-11.2402
轰	-11.2402
我还是	-11.2403
相连	-11.2404
文科	-11.2405
温水	-11.2405
见证	-11.2407
每当	-11.2407
润滑	-11.2407
扩散	-11.2408
存在的	-11.2408
大自然	-11.2412
乘车	-11.2413
路过	-11.2414
科学的	-11.2414
加班	-11.2415
多项	-11.2415
市政	-11.2419
糕	-11.2419
线索	-11.2421
的软件	-11.2422
底下	-11.2424
喜好	-11.2426
做梦	-11.2427
过渡	-11.2427
自考	-11.2428
廉	-11.2429
ill	-11.2429
心中的	-11.243
一流的	-11.2431
蒲	-11.2431
不断地	-11.2432
来临	-11.2433
色调	-11.2435
一处	-11.2436
应用程序	-11.2436
途中	-11.2439
。2017	-11.244
举报原因	-11.244
痛风	-11.2441
最长	-11.2441
ae	-11.2442
大棚	-11.2443
实物	-11.2443
实际情况	-11.2445
就是这样	-11.2445
/8	-11.2446
一楼	-11.2447
传送	-11.2447
还真	-11.2447
天后	-11.2448
ive	-11.2451
据了解	-11.2451
肘	-11.2453
补血	-11.2456
胶原蛋白	-11.2457
王国	-11.2457
国家的	-11.2458
格局	-11.246
产妇	-11.246
自治区	-11.2461
言情	-11.2461
我没	-11.2463
爱我	-11.2463
木质	-11.2464
花瓣	-11.2465
召	-11.2465
不好的	-11.2466
aa	-11.2466
是正常的	-11.2468
盆腔炎	-11.247
毕业于	-11.247
注入	-11.2474
;3	-11.2475
我也是	-11.2476
以此	-11.2477
澳大利亚	-11.2477
瞧	-11.2479
oc	-11.248
给力	-11.2483
中最	-11.2485
当日	-11.2485
分裂	-11.2486
有兴趣	-11.2491
人民法院	-11.2491
东京	-11.2491
的商品	-11.2493
竭	-11.2494
绝地求生	-11.2494
不孕	-11.2494
着我	-11.2495
复活	-11.2496
还算	-11.2496
构建	-11.2497
元宝	-11.2497
南部	-11.2499
京公网安备	-11.2502
几率	-11.2502
夸张	-11.2503
053	-11.2504
逍遥	-11.2507
最少	-11.2508
可怕	-11.2512
创立	-11.2513
为广大	-11.2513
7000	-11.2514
应注意	-11.2514
家属	-11.2518
研究院	-11.2519
生冷	-11.2519
就可	-11.2522
效益	-11.2522
酚	-11.2522
甄	-11.2524
/6	-11.2527
楼层	-11.2527
baby	-11.2527
如果你是	-11.253
些什么	-11.253
纠错	-11.2531
屠	-11.2532
以前的	-11.2534
才发现	-11.2535
there	-11.2535
绘	-11.2536
旗舰店	-11.2536
极品	-11.254
也非常	-11.254
轻微	-11.2542
寻求	-11.2543
当前位置	-11.2543
汝	-11.2546
园区	-11.2547
写了	-11.2548
欲望	-11.2549
格外	-11.2551
料酒	-11.2556
0%	-11.2556
gs	-11.2558
满分	-11.2558
服务态度	-11.2559
清晨	-11.256
悬挂	-11.2561
痉挛	-11.2562
柔和	-11.2563
牵引	-11.2564
等人	-11.2564
年间	-11.2565
轻度	-11.2565
搅	-11.2565
微风	-11.2566
水面	-11.2569
出手	-11.2569
观光	-11.2571
的操作	-11.2573
ian	-11.2573
货运	-11.2574
立场	-11.2575
及以上	-11.2576
打出	-11.2576
刷卡	-11.2576
的梦想	-11.2577
严格的	-11.2578
锅里	-11.2582
个回答默认排序	-11.2583
视线	-11.2584
扩	-11.2584
视角	-11.2586
执法	-11.2587
藻	-11.2588
聪	-11.2589
去过	-11.2589
皂	-11.2593
为中心	-11.2596
袜	-11.2598
我没有	-11.2598
的身影	-11.26
蹦	-11.26
替换	-11.26
童话	-11.2601
蹭	-11.2602
捞	-11.2603
下一	-11.2607
的宝宝	-11.2607
在里面	-11.2607
体内的	-11.2611
三月	-11.2611
ate	-11.2612
蘸	-11.2612
高三	-11.2614
板块	-11.2615
是这样的	-11.2618
就是要	-11.262
可根据	-11.2621
每个人的	-11.2623
燕窝	-11.2624
ting	-11.2625
全家	-11.2625
被誉为	-11.2627
碰撞	-11.2628
7.0	-11.2629
等着	-11.263
留在	-11.263
杂质	-11.2631
挖掘机	-11.2631
火热	-11.2632
热带	-11.2633
登场	-11.2634
:400-6360-888	-11.2636
占用	-11.2637
要说	-11.2638
专线	-11.2639
类型的	-11.2639
主力	-11.2639
通行	-11.2639
一朵	-11.264
在乎	-11.2642
好事	-11.2643
变为	-11.2644
打造的	-11.2646
设备有限公司	-11.2647
种种	-11.2648
奶油	-11.2649
巅峰	-11.2649
固体	-11.2652
控制器	-11.2653
喝了	-11.2655
靴	-11.2656
="	-11.2657
9.5	-11.2664
tra	-11.2666
sand	-11.2668
你们的	-11.2671
老是	-11.2672
第二步	-11.2673
质疑	-11.2673
所以我们	-11.2673
合一	-11.2674
可谓	-11.2676
愈合	-11.2676
127	-11.2677
小狗	-11.2677
有不少	-11.2685
陕西省	-11.2685
昨日	-11.2686
业有限公司	-11.2686
机能	-11.2686
主张	-11.2687
指令	-11.2688
眼球	-11.2689
一下子	-11.2689
pre	-11.269
笋	-11.2691
宝妈	-11.2693
省份	-11.2694
极致	-11.2696
快餐	-11.2697
笔记本电脑	-11.2697
黑色素	-11.2697
蝉	-11.2698
字符	-11.2701
干嘛	-11.2702
盯着	-11.2704
book	-11.2705
ー	-11.2705
畜	-11.2706
文献	-11.2707
就去	-11.2707
客服咨询热线	-11.2708
只为	-11.2708
违	-11.2708
接地	-11.271
编程	-11.271
稀释	-11.2711
弧	-11.2711
缓缓	-11.2712
地坪	-11.2713
严禁	-11.2713
震动	-11.2715
口袋	-11.2716
放进	-11.2719
占有	-11.2719
神仙	-11.272
杖	-11.272
社会的	-11.2722
已被	-11.2722
整理了	-11.2727
推荐阅读	-11.2727
一般为	-11.2727
赋予	-11.2728
硫	-11.2729
分明	-11.2732
心疼	-11.2732
的画面	-11.2733
以其	-11.2736
国民	-11.2736
降温	-11.2737
成年	-11.2737
ine	-11.2738
黏膜	-11.2739
提高了	-11.2739
的情绪	-11.274
178	-11.2741
抑郁	-11.2741
审美	-11.2745
稻	-11.2745
监狱	-11.2745
认同	-11.2747
绞	-11.2748
郑州市	-11.275
.....	-11.275
包皮过长	-11.275
转化	-11.2752
但如果	-11.2756
工业区	-11.2756
随时随地了解最新	-11.2757
很方便	-11.2759
的时代	-11.2761
车上	-11.2762
db	-11.2762
混乱	-11.2765
肺癌	-11.277
风湿	-11.2772
更大的	-11.2773
导师	-11.2774
聚氨酯	-11.2776
低头	-11.2777
味精	-11.2777
的女儿	-11.2778
每一位	-11.2779
为什么会	-11.278
肛	-11.278
新加坡	-11.2781
工地	-11.2783
换成	-11.2783
地域	-11.2783
区间	-11.2786
撇	-11.2786
虞	-11.2786
mc	-11.2787
鲜艳	-11.2787
广告或垃圾信息色情	-11.2787
浊	-11.2787
激进时政或意识形态话题	-11.2787
嫁给	-11.2788
确定举报此	-11.2789
吼	-11.2792
mf	-11.2793
清香	-11.2794
知识之旅	-11.2795
婴幼儿	-11.2795
不雅词句或人身攻击诈骗侵犯他人隐私其它违法和不良信息	-11.2796
虚假	-11.2798
只要是	-11.2799
屁	-11.2804
蛋黄	-11.2804
就会出现	-11.2806
浴室	-11.2806
猴子	-11.2808
周六	-11.2808
邑	-11.281
茵	-11.281
即使是	-11.2812
时装	-11.2814
过低	-11.2814
≤	-11.2816
喔	-11.2816
堤	-11.2817
高品质	-11.2818
保存到	-11.2819
丫	-11.282
防盗	-11.2822
腌制	-11.2824
shu	-11.2824
隔断	-11.2825
长按	-11.2825
:*	-11.2826
α	-11.2826
揽	-11.2827
主人公	-11.2829
地处	-11.2829
毫不	-11.283
清明	-11.283
sw	-11.2831
涩	-11.2832
浑	-11.2835
手掌	-11.2838
受欢迎	-11.2842
好像是	-11.2843
相对于	-11.2844
看的	-11.2844
纽约	-11.2844
绝望	-11.2844
的理想	-11.2847
皓	-11.2848
元件	-11.2848
预期	-11.2849
的秘密	-11.2849
引入	-11.2851
就应该	-11.2851
躺	-11.2851
你去	-11.2851
尽情	-11.2851
涵盖	-11.2852
对其	-11.2853
打磨	-11.2853
荷花	-11.2855
薯	-11.2855
yi	-11.2856
竞赛	-11.2857
ah	-11.2858
一瓶	-11.2858
不少人	-11.2859
3-	-11.286
这两种	-11.286
关键是	-11.2861
世上	-11.2863
闪电	-11.2865
dj	-11.2866
性强	-11.287
本月	-11.2871
的物质	-11.2873
愤	-11.2874
来回	-11.2875
跟他	-11.2878
的城市	-11.2878
裙子	-11.288
戊	-11.288
临沂	-11.2881
是他	-11.2882
龙头	-11.2884
的高度	-11.2884
翰	-11.2885
腿部	-11.2888
131	-11.2888
石榴	-11.289
牛仔裤	-11.289
在她	-11.2891
帝王	-11.2891
用电	-11.2892
简易	-11.2892
如果不是	-11.2892
最后一	-11.2893
一度	-11.2894
心动	-11.2894
烤箱	-11.2895
救援	-11.2895
刺激性	-11.2897
方法是	-11.2897
之王	-11.2899
透过	-11.29
第一天	-11.2903
植株	-11.2903
禹	-11.2903
关爱	-11.2904
能看到	-11.2906
短期	-11.291
扣除	-11.2911
不定	-11.2912
犹豫	-11.2912
机组	-11.2912
因其	-11.2913
简便	-11.2913
长寿	-11.2915
出轨	-11.2915
吉利	-11.2915
走上	-11.2916
操控	-11.2916
抵抗	-11.2917
驾照	-11.2918
我相信	-11.2919
尧	-11.2919
方向盘	-11.292
环境下	-11.2922
这样就	-11.2923
友好	-11.2927
肉类	-11.2931
差点	-11.2933
晚餐	-11.2933
绝不	-11.2934
山楂	-11.2934
脱离	-11.2935
动人	-11.2936
取经	-11.2936
生长发育	-11.2937
坟	-11.2939
标准的	-11.2939
址	-11.294
此刻	-11.2941
不尽	-11.2941
习俗	-11.2943
昔	-11.2944
泼	-11.2945
场面	-11.2946
胚胎	-11.2947
代理商	-11.2948
的含义	-11.2949
已经被	-11.2953
org	-11.2953
第六章	-11.2955
内饰	-11.2955
的季节	-11.2956
hy	-11.2956
阀门	-11.2957
脆弱	-11.2957
发现自己	-11.2957
的页面	-11.2959
预览	-11.2959
蜜蜂	-11.296
流失	-11.2961
中性	-11.2962
叫我	-11.2962
量大	-11.2965
异性	-11.2967
的优点	-11.2967
伟大	-11.2968
还是有	-11.2969
所需的	-11.2969
袍	-11.297
治疗方案	-11.297
远方	-11.2972
听力	-11.2973
除去	-11.2974
瑞士	-11.2975
的头发	-11.2975
什么东西	-11.2976
砌	-11.2977
止血	-11.2977
ers	-11.2977
祁	-11.2982
品尝	-11.2982
悔	-11.2983
严谨	-11.2983
火箭	-11.2984
化合物	-11.2984
法定	-11.2984
144	-11.2984
胃肠道	-11.2986
北部	-11.2987
易于	-11.2989
终止	-11.2989
不允许	-11.299
本着	-11.299
纠正	-11.2992
う	-11.2993
话费	-11.2994
芸	-11.2994
排气	-11.2995
所得	-11.2997
迎接	-11.2998
手套	-11.2998
哈哈哈	-11.2998
职场	-11.2998
乃至	-11.3
唉	-11.3002
卸载	-11.3002
泉州	-11.3002
赛车	-11.3004
太高	-11.3004
女人的	-11.3005
山上	-11.3005
的家庭	-11.3005
清单	-11.3005
我对	-11.3009
中型	-11.301
1995	-11.301
三千	-11.3011
跑到	-11.3011
到账	-11.3013
香烟	-11.3014
经营风险	-11.3016
不仅可以	-11.3018
会觉得	-11.302
gt	-11.302
大概是	-11.3023
名牌	-11.3023
很是	-11.3023
/10	-11.3024
><	-11.3025
中国共产党	-11.3025
英雄联盟	-11.3025
fo	-11.3026
肥皂	-11.3026
荫	-11.3027
nm	-11.3027
tan	-11.3027
铅笔	-11.3028
rom	-11.3028
允	-11.3029
红肿	-11.303
不佳	-11.3033
冰淇淋	-11.3034
256	-11.3036
驾校	-11.3036
修正	-11.3038
下垂	-11.3041
夫妇	-11.3043
预示	-11.3044
复查	-11.3046
大家都知道	-11.3047
雪花	-11.3047
万平方米	-11.3049
悄悄	-11.305
的心态	-11.305
俄	-11.3053
*2	-11.3055
燃油	-11.3056
と	-11.3057
医学院	-11.3057
一号	-11.3058
hr	-11.3063
他也	-11.3063
出色	-11.3064
青蛙	-11.3064
橘子	-11.3065
您可以进行追问或是评价你好	-11.3067
三四	-11.3067
安置	-11.3068
黑色的	-11.3069
罢了	-11.3069
南阳	-11.307
旅行社	-11.3071
尿液	-11.3072
不肯	-11.3074
周围的	-11.3075
购票	-11.3076
燃料	-11.3077
掉落	-11.3077
有很好的	-11.3077
5-	-11.3077
清风	-11.3077
蓄电池	-11.3079
走在	-11.3079
前的	-11.3079
组织的	-11.308
的时候就	-11.308
间隙	-11.3082
该怎么办	-11.3082
施肥	-11.3085
bc	-11.3087
补助	-11.3089
客车	-11.3089
的人群	-11.3094
稳定的	-11.3096
置于	-11.3097
的看法	-11.3097
版的	-11.3098
肯定会	-11.3102
的介绍	-11.3103
阴阳师	-11.3104
语气	-11.3109
家伙	-11.311
乏力	-11.311
赞美	-11.3112
菱	-11.3113
一枚	-11.3113
老百姓	-11.3114
145	-11.3114
今天就	-11.3115
的表情	-11.3116
下肢	-11.3117
一侧	-11.3118
在学校	-11.3118
栓	-11.3119
pan	-11.312
新浪微博	-11.312
手机游戏	-11.3124
性病	-11.3127
驾驶员	-11.3127
涉嫌	-11.3127
的最大	-11.3128
国家地区中国	-11.3129
棕色	-11.3129
绘制	-11.313
妞	-11.313
荆	-11.313
一个人的	-11.3131
几何	-11.3131
栖	-11.3131
要及时	-11.3132
打破	-11.3133
放电	-11.3135
在地上	-11.3136
拆迁	-11.3136
主观	-11.3138
开户	-11.3138
离开了	-11.3139
遥控器	-11.314
几个月	-11.3142
墙壁	-11.3142
家里的	-11.3144
净水器	-11.3145
是一位	-11.3146
有名的	-11.3147
代表着	-11.3151
我一直	-11.3151
不良反应	-11.3151
时常	-11.3152
风格的	-11.3152
调味	-11.3153
=0	-11.3154
修剪	-11.3156
=3	-11.3156
mt	-11.3156
永不	-11.3162
没了	-11.3163
消费者维权热线	-11.3164
中央空调	-11.3166
推送	-11.317
唐代	-11.3171
拼搏	-11.3172
work	-11.3173
最后的	-11.3173
轮廓	-11.3174
凹	-11.3174
算命	-11.3175
依托	-11.3176
sk	-11.3176
怎么会	-11.3177
梭	-11.3179
右下角	-11.3181
性欲	-11.3181
长短	-11.3182
:4006067733?	-11.3182
:4006561155??	-11.3183
上限	-11.3185
然后把	-11.3187
我不知道	-11.3187
新一代	-11.3189
sto	-11.3191
两大	-11.3194
之情	-11.3194
灯具	-11.3195
之力	-11.3195
勤奋	-11.3197
yo	-11.3198
必要的	-11.3198
传染病	-11.3198
暂停	-11.3201
备案编号	-11.3201
嘉宾	-11.3203
乡镇	-11.3203
子弹	-11.3203
1300	-11.3204
腊	-11.3207
を	-11.321
收拾	-11.3211
(10	-11.3215
执着	-11.3216
亨	-11.3216
坦克	-11.3217
肋	-11.3219
尸体	-11.322
的人都	-11.3222
排量	-11.3224
右上角	-11.3225
当成	-11.3225
苦恼	-11.3226
内侧	-11.3228
带走	-11.3231
肢	-11.3231
阿里巴巴	-11.3231
看出	-11.3231
无痛人流	-11.3232
榆	-11.3233
sn	-11.3234
手机的	-11.3234
移民	-11.3234
软件语言	-11.3235
工作中	-11.3235
民国	-11.3236
计量	-11.3238
落后	-11.3239
我把	-11.3239
在我国	-11.3242
手术后	-11.3243
的车	-11.3243
取代	-11.3245
一碗	-11.3246
如果要	-11.3247
坎	-11.3249
岂	-11.3249
?4	-11.3252
hp	-11.3252
菇	-11.3253
甜美	-11.3257
变色	-11.3258
承载	-11.3259
月底	-11.3261
完后	-11.3261
低调	-11.3261
国王	-11.3262
好后	-11.3262
经营模式	-11.3264
签字	-11.3266
详解	-11.3266
竞争力	-11.3266
出厂	-11.3268
哪里有	-11.3268
177	-11.3269
抽烟	-11.3269
遇到了	-11.3271
红糖	-11.3271
陆续	-11.3274
形势	-11.3275
が	-11.3275
蕊	-11.3275
觉醒	-11.3275
//	-11.3275
可直接	-11.3278
这对	-11.3278
平等	-11.3279
在手机上	-11.328
=(	-11.3281
用料	-11.3282
全年	-11.3282
就很	-11.3282
身上的	-11.3284
淘汰	-11.3284
各级	-11.3285
充血	-11.3286
为主要	-11.3286
取名	-11.3286
跳舞	-11.3286
梦见自己	-11.3288
快乐的	-11.329
旱	-11.3291
欺负	-11.3292
匆匆	-11.3293
た	-11.3294
还记得	-11.3295
比起	-11.3297
拂	-11.3298
亥	-11.3299
的父亲	-11.33
ber	-11.33
准确的	-11.33
为我们	-11.3301
る	-11.3301
但是如果	-11.3301
舔	-11.3304
皮肤科	-11.3304
头疼	-11.3307
学到	-11.3307
的吸收	-11.3309
his	-11.3311
柴油	-11.3311
伸出	-11.3312
颈椎	-11.3313
地质	-11.3314
恋人	-11.3315
棵	-11.3318
等情况	-11.3319
华丽	-11.3319
煲	-11.3321
时要	-11.3322
墙上	-11.3322
峡	-11.3323
news	-11.3324
低压	-11.3326
花了	-11.3327
制药	-11.333
悲剧	-11.333
生殖器	-11.3331
营养成分	-11.3332
熊猫	-11.3333
法兰	-11.3333
亲切	-11.3334
他会	-11.3334
就是你	-11.3335
排卵期	-11.3335
适中	-11.3336
然后就	-11.3336
仅有	-11.3337
大楼	-11.3338
这里有	-11.3338
315	-11.3339
特点是	-11.3341
部落	-11.3343
曝	-11.3343
出租车	-11.3344
十万	-11.3344
宫颈糜烂	-11.3345
霸王	-11.3346
演示	-11.3347
首都	-11.3347
绝大多数	-11.3349
激烈	-11.335
á	-11.335
ft	-11.3352
:[	-11.3352
连载	-11.3353
在游戏中	-11.3353
一波	-11.3354
成年人	-11.3355
分娩	-11.3358
福建省	-11.3358
多长时间	-11.336
抛光	-11.3361
杯子	-11.3363
方位	-11.3363
是非	-11.3366
平凡	-11.3368
如果想	-11.337
▁?2015	-11.3372
新华	-11.3375
封建	-11.3378
舒适的	-11.3379
ān	-11.3379
优越	-11.3379
锅中	-11.338
爱吃	-11.3381
创办	-11.3382
的功效与作用	-11.3382
解说	-11.3382
澡	-11.3383
视为	-11.3384
面的	-11.3384
造句	-11.3384
し	-11.3387
才行	-11.3387
这是我	-11.3387
3.1	-11.339
good	-11.3394
海水	-11.3394
的文字	-11.3394
剪刀	-11.3397
变频	-11.34
耳鸣	-11.3406
就算是	-11.3406
物资	-11.3407
田园	-11.3407
480	-11.3416
0+	-11.3417
有必要	-11.342
肝炎	-11.3422
火山	-11.3423
port	-11.3424
牢固	-11.3424
一万	-11.3424
得不到	-11.3424
的几率	-11.3425
客运站	-11.3426
??(	-11.3427
结核	-11.3427
单价	-11.3428
玩耍	-11.3429
三百	-11.343
实质	-11.343
往事	-11.3432
闻名	-11.3433
6.0	-11.3435
最主要的	-11.3436
生活习惯	-11.3437
手册	-11.3437
的一部分	-11.344
不稳定	-11.3441
所在地区	-11.3442
前置	-11.3442
伙	-11.3443
自来水	-11.3443
要不	-11.3443
伴侣	-11.3445
电容	-11.3445
西装	-11.3447
是一部	-11.3447
之战	-11.3449
警告	-11.3449
携	-11.345
往上	-11.3451
配音	-11.3457
全套	-11.3457
21.	-11.3459
道歉	-11.3459
1993	-11.3465
从前	-11.3465
的种类	-11.3466
蒙古	-11.3467
怎么设置	-11.3467
心跳	-11.3469
惊讶	-11.347
查看详情	-11.3471
气泡	-11.3472
留意	-11.3472
很多时候	-11.3473
过去的	-11.3474
过期	-11.3474
的目光	-11.3475
的生长	-11.3476
都非常	-11.3476
实在是	-11.3476
冤	-11.3477
――	-11.3478
墙体	-11.3479
中文名称	-11.3479
多喝	-11.3481
会让你	-11.3482
编织	-11.3482
巩固	-11.3483
充足的	-11.3485
说的是	-11.3486
晋江	-11.3487
勋	-11.349
呵护	-11.3491
人身	-11.3491
点击查看大图	-11.3492
有很大	-11.3492
览	-11.3496
下一个	-11.35
优质解答	-11.35
技师	-11.3501
获奖	-11.3501
的重要性	-11.3504
也将	-11.3507
22.	-11.3507
营养价值	-11.3508
了自己	-11.3508
青山	-11.3509
邹	-11.3511
这是因为	-11.3513
地产	-11.3514
闪烁	-11.3514
组建	-11.3515
葵	-11.3516
中专	-11.3517
成都市	-11.3517
弥补	-11.3521
抱怨	-11.3522
地毯	-11.3522
吸入	-11.3522
mu	-11.3523
慎重	-11.3523
为您推荐	-11.3524
红花	-11.3524
感叹	-11.3524
人力资源	-11.3527
这样可以	-11.3528
二氧化碳	-11.3529
上车	-11.353
直观	-11.3531
湿热	-11.3531
阴影	-11.3532
宁静	-11.3532
惯	-11.3532
怜	-11.3532
办事	-11.3533
鲸	-11.3533
牙龈	-11.3534
=6	-11.3534
打扮	-11.3534
文物	-11.3534
进入到	-11.3535
阻塞	-11.3538
人为	-11.3538
邵	-11.3539
都不能	-11.3539
点火	-11.354
靓	-11.354
揭	-11.3541
截至	-11.3542
极大的	-11.3543
特意	-11.3543
椰	-11.3544
级的	-11.3545
培训机构	-11.3546
减速	-11.3549
着你	-11.3552
多余的	-11.3552
捣	-11.3553
其实就是	-11.3554
加密	-11.3554
出身	-11.3555
打包	-11.3556
科幻	-11.3557
结束了	-11.3558
没用	-11.3559
来做	-11.356
前几天	-11.356
会所	-11.3561
的价值	-11.3562
一分	-11.3563
雌	-11.3563
事务	-11.3563
实战	-11.3563
包包	-11.3565
雏	-11.3567
1994	-11.3568
下来的	-11.3569
魄	-11.3569
绍	-11.357
征服	-11.3571
荷兰	-11.3571
误差	-11.3574
相关标签	-11.3574
廖	-11.3575
不应该	-11.3575
医生说	-11.3576
四种	-11.3576
该公司	-11.3577
骄	-11.3577
倚	-11.3579
蓝天	-11.358
意识到	-11.358
山西省	-11.358
新时代	-11.3581
是一样的	-11.3581
和她	-11.3581
的理解	-11.3582
治疗效果	-11.3582
必需	-11.3584
演唱会	-11.3585
侵权	-11.3586
157	-11.3586
过滤器	-11.3587
气压	-11.3588
地理位置	-11.3589
描绘	-11.359
起来了	-11.3591
根部	-11.3593
科普	-11.3594
停留	-11.3594
客房	-11.3595
拉伸	-11.3595
龙虾	-11.3595
连衣裙	-11.3596
那么就	-11.3597
薄荷	-11.3598
情趣	-11.3598
小鱼	-11.3599
nd	-11.36
的营养	-11.36
some	-11.3602
组装	-11.3603
临床表现	-11.3604
请大家	-11.3606
次分享请扫描分享到朋友圈	-11.3606
决赛	-11.3607
配角	-11.3608
统治	-11.3608
皮肤的	-11.3609
变身	-11.361
前者	-11.3613
镀	-11.3614
忍受	-11.3617
登上	-11.3618
遥控	-11.362
卯	-11.3621
169	-11.3621
盆栽	-11.3621
作词	-11.3621
2.7	-11.3622
第七章	-11.3623
(8)	-11.3623
开封	-11.3625
可以服用	-11.3626
发车	-11.3627
南站	-11.3628
在我的	-11.3629
笑着	-11.3629
ls	-11.363
的出现	-11.363
2~3	-11.363
拇指	-11.3632
天真	-11.3634
化疗	-11.3636
流行的	-11.3638
的任务	-11.3639
捞出	-11.3639
dna	-11.3639
还有一些	-11.364
倾向	-11.3642
保证金	-11.3642
与人	-11.3643
蕴	-11.3645
确实是	-11.3646
师范	-11.3647
南海	-11.3647
太空	-11.3647
澳洲	-11.3647
爸	-11.365
今晚	-11.3651
就不要	-11.3652
芹菜	-11.3653
发表于	-11.3656
捕捉	-11.3656
是一件	-11.3657
废气	-11.366
搏	-11.3662
金山	-11.3663
一直都	-11.3664
bl	-11.3665
箭头	-11.3668
硝	-11.3668
滋补	-11.367
汀	-11.3673
有几个	-11.3674
依照	-11.3674
是国内	-11.3676
探讨	-11.3677
而后	-11.3677
冈	-11.3678
授予	-11.368
早在	-11.368
先将	-11.3681
一世	-11.3683
流血	-11.3685
lg	-11.3686
改成	-11.3687
一览	-11.3688
可口	-11.3689
商机	-11.3692
衍生	-11.3693
red	-11.3696
他家	-11.3697
喜爱的	-11.3698
过得	-11.3698
电脑版	-11.3698
边的	-11.3699
2013-	-11.37
仆	-11.37
延迟	-11.3701
洗面奶	-11.3702
:00??	-11.3702
人都	-11.3704
雨水	-11.3705
衰老	-11.3707
评论时间	-11.3707
边框	-11.3708
1/3	-11.3708
鲍	-11.3709
:"	-11.3709
和尚	-11.371
香菇	-11.3711
很快就	-11.3712
3.6	-11.3713
恶劣	-11.3713
之意	-11.3716
就说	-11.3717
千万别	-11.3719
结节	-11.3719
现在已经	-11.372
住房公积金	-11.3721
的成绩	-11.3723
腕	-11.3723
痘	-11.3725
仓储	-11.3726
相关资料	-11.3728
参考资料	-11.3732
验收	-11.3734
行车	-11.3734
男人的	-11.3735
大叔	-11.3736
芙蓉	-11.3738
高贵	-11.3741
小事	-11.3742
小姐姐	-11.3743
宫颈炎	-11.3743
供货总量	-11.3744
推广热线	-11.3745
发动	-11.3745
男神	-11.3747
求职	-11.3749
助力	-11.3749
see	-11.375
ns	-11.3753
废旧	-11.3755
相关产品	-11.3755
况	-11.3756
中等	-11.376
曦	-11.3761
日后	-11.3761
故乡	-11.3761
车内	-11.3761
脱毛	-11.3762
桌子	-11.3762
崛起	-11.3762
错误的	-11.3763
条款	-11.3763
匪	-11.3764
录像	-11.3764
先天	-11.3765
low	-11.3766
有种	-11.3767
每一次	-11.3767
3.3	-11.3769
封面	-11.3769
江山	-11.377
万年	-11.3771
永恒	-11.3772
悠悠	-11.3772
一行	-11.3773
贴心	-11.3773
庸	-11.3773
面子	-11.3774
算法	-11.3775
女的	-11.3775
菠菜	-11.3777
亲情	-11.3778
恐龙	-11.3778
年来	-11.3779
不利于	-11.378
头顶	-11.378
副主任	-11.3781
肃	-11.3782
死后	-11.3783
瘦肉	-11.3785
原来是	-11.3785
魅	-11.3787
砂浆	-11.3788
ist	-11.3788
学家	-11.3791
166	-11.3791
幅度	-11.3792
出水	-11.3792
star	-11.3794
唑	-11.3796
鱼类	-11.3797
挠	-11.3797
超高	-11.3797
修饰	-11.3797
甚至是	-11.3798
签到	-11.3798
乐器	-11.3799
创业者	-11.3799
夷	-11.38
斥	-11.38
假设	-11.3802
花朵	-11.3802
就得	-11.3802
折磨	-11.3805
髓	-11.3806
肠炎	-11.3807
前世	-11.381
纳米	-11.3813
有一点	-11.3814
优惠券	-11.3816
是最好的	-11.3817
web	-11.3817
进水	-11.3817
game	-11.3817
奥迪	-11.3819
不应	-11.3819
288	-11.3819
给我留言	-11.382
一带	-11.3821
15%	-11.3821
0°	-11.3821
清热解毒	-11.3824
gi	-11.3825
换个	-11.3825
不正常	-11.3826
va	-11.3826
妇科炎症	-11.3829
过类似问题	-11.3829
隔热	-11.3829
至尊	-11.383
对自己的	-11.383
悬赏	-11.3831
收款	-11.3831
培训学校	-11.3833
名义	-11.3834
孙悟空	-11.3836
相亲	-11.3839
修身	-11.3839
萱	-11.3839
每个月	-11.3839
花纹	-11.384
尽量不要	-11.3841
合作伙伴	-11.3842
留下了	-11.3843
死去	-11.3844
中小学	-11.3845
tm	-11.3845
金牌	-11.3845
榜单	-11.3847
153	-11.3848
启用	-11.3849
的哦	-11.385
会发生	-11.3854
半径	-11.3855
河流	-11.3858
歌唱	-11.3862
护照	-11.3863
亿美元	-11.3863
父母的	-11.3863
其他网友提	-11.3864
接种	-11.3864
时间为	-11.3866
发布会	-11.3866
ice	-11.3866
庭院	-11.3868
预示着	-11.3868
散步	-11.3868
中期	-11.387
佑	-11.387
联赛	-11.387
外贸	-11.387
。9.	-11.3871
多媒体	-11.3875
ak	-11.3875
der	-11.3876
可以从	-11.3877
的结构	-11.3877
编写	-11.3878
很高兴	-11.3878
都不是	-11.388
太太	-11.388
教训	-11.3884
ur	-11.3884
邮政	-11.3885
躺在	-11.3885
小编就	-11.3886
出场	-11.3887
劳动合同	-11.3888
深深	-11.3888
加成	-11.3889
昨晚	-11.3889
好吃的	-11.3889
飞翔	-11.389
树叶	-11.3891
省钱	-11.3892
挣扎	-11.3893
215	-11.3895
情怀	-11.3895
这款游戏	-11.3895
芒	-11.3896
网购	-11.3897
导游	-11.3897
雀斑	-11.3897
卫浴	-11.39
都喜欢	-11.39
北海	-11.3905
ef	-11.3905
七十	-11.3906
滤芯	-11.3906
极了	-11.3908
310	-11.3909
模拟器	-11.391
言语	-11.3911
神经系统	-11.3911
切片	-11.3913
工艺品	-11.3914
旋律	-11.3914
琦	-11.3915
黄豆	-11.3916
二者	-11.3917
温室	-11.3917
的答案	-11.3918
这样一个	-11.392
嘴角	-11.3921
析	-11.3922
828	-11.3925
风筝	-11.3926
live	-11.3927
收纳	-11.3927
运算	-11.3927
饮水	-11.3928
并未	-11.3929
乾隆	-11.3929
良心	-11.393
专为	-11.393
嘎	-11.393
che	-11.3932
利于	-11.3932
昵称	-11.3933
从中	-11.3936
更能	-11.3937
洽谈	-11.3938
他还	-11.3938
。2015	-11.3938
who	-11.3939
知识点	-11.394
颤	-11.3943
水泵	-11.3943
人性化	-11.3945
螃蟹	-11.3945
又要	-11.3947
毛衣	-11.3948
恰	-11.395
惩罚	-11.3951
的记忆	-11.3951
了解更多	-11.3952
可能有	-11.3952
用清水	-11.3954
泳	-11.3956
这场	-11.3957
在外面	-11.3957
ん	-11.3958
的地位	-11.3958
惠州	-11.3959
畅销	-11.3962
制作的	-11.3963
二楼	-11.3964
不及	-11.3965
毒性	-11.3966
经验视频如何	-11.3966
活动中	-11.3967
班主任	-11.3967
橡皮	-11.3969
的象征	-11.397
不符合	-11.3971
怀孕的	-11.3975
倪	-11.3976
330	-11.3977
是怎样的	-11.3977
靠谱	-11.3978
滋	-11.3978
什么呢	-11.3979
现已	-11.398
过关	-11.398
清凉	-11.398
一口气	-11.3981
的数量	-11.3981
配料	-11.3981
...(1	-11.3982
软膏	-11.3984
很明显	-11.3987
当做	-11.3988
价值观	-11.3988
唐山	-11.3989
经络	-11.3989
陌生人	-11.399
斧	-11.3992
清醒	-11.3992
数据线	-11.3992
148	-11.3993
落下	-11.3994
备考	-11.3995
▁发布时间	-11.3996
tp	-11.3997
掌柜	-11.3998
又叫	-11.3998
+3	-11.3999
朝鲜	-11.3999
性好	-11.3999
委屈	-11.3999
应在	-11.4
股权	-11.4
ny	-11.4002
三级甲等	-11.4002
生化	-11.4002
一堆	-11.4003
武汉市	-11.4005
这一次	-11.4005
不下	-11.4005
饼干	-11.4005
抗菌	-11.4006
昆虫	-11.401
我可以	-11.4012
书面	-11.4015
用的是	-11.4015
百货	-11.4019
有效地	-11.4019
发电	-11.4022
止咳	-11.4024
大理	-11.4024
既有	-11.4027
sina	-11.4029
1992	-11.4033
眼科	-11.4034
还行	-11.4035
的呢	-11.4038
146	-11.4039
中医院	-11.404
消肿	-11.4042
纺织	-11.4043
270	-11.4043
1~2	-11.4044
把她	-11.4046
之道	-11.4047
逊	-11.4047
参演	-11.4048
必定	-11.4048
720	-11.4048
;6、	-11.4049
无毒	-11.4051
遭受	-11.4052
lin	-11.4052
明珠	-11.4053
肢体	-11.4053
到最后	-11.4054
jj	-11.4054
pri	-11.4057
妄	-11.4058
热敷	-11.4058
联系电话是	-11.406
日常生活	-11.4062
ī	-11.4065
打车	-11.4067
久了	-11.4067
就会有	-11.4067
抽奖	-11.4068
离线	-11.4069
师生	-11.4069
不掉	-11.4072
纵横	-11.4072
轮回	-11.4078
问题的	-11.4079
人类的	-11.4079
绿色的	-11.408
含有丰富的	-11.408
憋	-11.408
歌声	-11.4081
月份好玩的地方大全	-11.4081
养老	-11.4081
在那	-11.4083
栽	-11.4085
为基础	-11.4086
戚	-11.4086
特有的	-11.4088
(5	-11.4091
不顾	-11.4091
极具	-11.4091
2014-	-11.4092
第八章	-11.4093
截止目前暂无	-11.4094
灵感	-11.4094
9.9	-11.4094
万一	-11.4096
南山	-11.4096
工业园	-11.4097
222	-11.4099
这座	-11.4099
餐桌	-11.4101
站立	-11.4101
加入了	-11.4101
这段时间	-11.4102
爱奇艺	-11.4103
从来	-11.4103
拢	-11.4107
平原	-11.4107
除尘	-11.4107
爸妈	-11.411
领域的	-11.4112
一字	-11.4115
发布了	-11.4118
209	-11.4119
view	-11.4121
智商	-11.4121
花样	-11.4124
便可	-11.4126
dm	-11.4129
电瓶	-11.413
chapter	-11.413
任何人	-11.413
一斤	-11.4131
准确性和合法性由发布	-11.4132
印花	-11.4132
int	-11.4132
大理石	-11.4132
叉车	-11.4133
换乘	-11.4135
深层	-11.4136
相等	-11.4137
珍贵	-11.4137
营业厅	-11.4138
玻尿酸	-11.4138
倾斜	-11.414
也需要	-11.414
用户的	-11.4141
槐	-11.4142
特别提示	-11.4143
基本内容	-11.4143
未能	-11.4144
海上	-11.4146
梵	-11.4149
车道	-11.4149
的眼神	-11.415
痕迹	-11.4151
胰岛素	-11.4151
蒸发	-11.4153
积水	-11.4154
吃得	-11.4156
邱	-11.4156
大了	-11.4159
几分	-11.416
评测	-11.4161
水流	-11.4161
降临	-11.4162
ye	-11.4162
不死	-11.4163
345	-11.4163
重重	-11.4164
滚动	-11.4164
噢	-11.4165
电工	-11.4166
商用	-11.4167
也可能	-11.4171
能有效	-11.4173
礼貌	-11.4174
现任	-11.418
半夜	-11.4182
挥发	-11.4183
过户	-11.4183
路段	-11.4184
拽	-11.4185
房源	-11.4186
的条件	-11.4186
正当	-11.4187
窍	-11.4187
重生之	-11.4187
鲁迅	-11.4188
要考虑	-11.4189
采摘	-11.419
产物	-11.4191
坐着	-11.4191
ei	-11.4191
警惕	-11.4193
原件	-11.4194
省市	-11.4194
pin	-11.4196
安全的	-11.4196
-40	-11.4196
▁男	-11.4197
设备的	-11.4198
问题分析	-11.4199
可引起	-11.42
拦	-11.42
で	-11.4201
恢复正常	-11.4201
也是一种	-11.4201
怎么看	-11.4202
航班	-11.4203
线的	-11.4204
的风险	-11.4205
了呢	-11.4206
好运	-11.4207
恶性	-11.4207
这种方法	-11.4209
没有办法	-11.4209
life	-11.4209
液晶	-11.421
简笔画	-11.421
玉石	-11.421
set	-11.4212
茄子	-11.4213
拿出来	-11.4213
不来	-11.4213
玫瑰花	-11.4213
在售	-11.4214
深情	-11.4215
只想	-11.4215
淄博	-11.4216
瘀	-11.4216
软化	-11.4217
they	-11.4217
af	-11.4218
牙膏	-11.4218
有帮助	-11.4221
uc	-11.4222
流浪	-11.4222
的母亲	-11.4223
成份	-11.4223
可乐	-11.4223
正如	-11.4224
uv	-11.4226
代价	-11.4227
都比较	-11.4228
行人	-11.4229
前行	-11.4229
ton	-11.4231
产品信息	-11.4231
楼下	-11.4232
经常会	-11.4233
配上	-11.4234
完全可以	-11.4235
海底	-11.4236
所在的	-11.4236
这个情况	-11.4237
〉	-11.4241
酵母	-11.4242
over	-11.4243
就想	-11.4244
血量	-11.4246
所需要的	-11.4246
的努力	-11.4247
美甲	-11.4247
酸痛	-11.4248
肉质	-11.4248
洗衣	-11.4249
属于自己的	-11.425
脉冲	-11.425
奕	-11.4251
世界杯	-11.4253
改革开放	-11.4253
连载中	-11.4253
东部	-11.4254
1-6	-11.4254
时期的	-11.4256
扰	-11.4257
欺骗	-11.4258
ity	-11.4259
怎么走	-11.426
然后将	-11.4262
糖果	-11.4262
时节	-11.4263
乌鲁木齐	-11.4263
off	-11.4264
茜	-11.4265
拘	-11.4269
钧	-11.427
避开	-11.427
星空	-11.4273
防滑	-11.4273
要不要	-11.4273
要先	-11.4274
薄膜	-11.4275
[1]	-11.4276
类似于	-11.4279
原发性	-11.4279
方针	-11.4279
欺	-11.428
染色体	-11.4281
^2	-11.4282
书画	-11.4282
本身的	-11.4283
静静	-11.4284
得好	-11.4286
嘿嘿	-11.4286
183	-11.4286
三分	-11.429
震惊	-11.429
奔跑	-11.429
原因是	-11.4292
我们也	-11.4293
药师	-11.4294
木瓜	-11.4295
我们需要	-11.4295
化解	-11.4295
23.	-11.4298
先天性	-11.4299
单元格	-11.4301
传销	-11.4301
酉	-11.4303
千金	-11.4304
不该	-11.4304
最重要的是	-11.4304
基本信息	-11.4306
192	-11.4306
的动力	-11.4311
卡牌	-11.4312
顾名思义	-11.4314
机遇	-11.4315
力气	-11.4317
张图片	-11.4318
玩转	-11.4318
价格也	-11.432
但不	-11.4321
多见于	-11.4322
车票	-11.4322
兼容	-11.4322
戏剧	-11.4323
很不错的	-11.4325
俏	-11.4325
原名	-11.4325
原著	-11.4327
胶水	-11.4327
淋巴	-11.4328
制剂	-11.4328
如有疑问	-11.4328
系列产品	-11.433
个人信息	-11.433
金华	-11.4331
太多的	-11.4332
一下吧	-11.4333
是如何	-11.4335
秋冬	-11.4335
修补	-11.4336
不太好	-11.4336
纯粹	-11.4336
分之	-11.4336
的程度	-11.4338
难免	-11.434
地铁站	-11.434
火车票	-11.4341
成功后	-11.4343
北站	-11.4345
一键查看所有搜题记录优质解答	-11.4345
密集	-11.4346
的歌	-11.4346
pl	-11.4349
单纯的	-11.4349
到来	-11.435
¥2	-11.4353
没有了	-11.4356
911	-11.4357
焖	-11.436
云南省	-11.436
到期	-11.4362
的其他	-11.4364
4.1	-11.4364
虽说	-11.4369
按压	-11.437
怀念	-11.4372
一直以来	-11.4373
か	-11.4374
愉悦	-11.4375
超强	-11.4376
五月	-11.4377
眼袋	-11.4378
都不知道	-11.4379
厌	-11.4379
二十四	-11.438
堪称	-11.438
历经	-11.4382
冻结	-11.4383
的权利	-11.4385
不分	-11.4385
对照	-11.4385
例子	-11.4388
会给	-11.4389
腌	-11.4389
挂在	-11.4391
垢	-11.4391
图层	-11.4391
锥	-11.4393
排尿	-11.4395
之称	-11.4396
高原	-11.4396
盖上	-11.4396
公积金	-11.4399
江西省	-11.44
愿望	-11.44
201	-11.4402
男的	-11.4402
日上午	-11.4402
双层	-11.4405
笑话	-11.4405
盐水	-11.4407
有限公司为您提供	-11.4407
反弹	-11.4409
西安市	-11.441
我能	-11.441
短短	-11.4412
660	-11.4414
古装	-11.4415
长了	-11.4416
快感	-11.4416
=4	-11.4419
阻碍	-11.442
φ	-11.442
不过是	-11.4421
大幅	-11.4421
杀了	-11.4423
.2.	-11.4424
悬浮	-11.4425
想过	-11.4428
哑	-11.4429
选取	-11.443
单机	-11.443
蚊子	-11.443
xin	-11.4431
审计	-11.4433
日常生活中	-11.4434
flash	-11.4435
供给	-11.4435
了出来	-11.4435
狭窄	-11.4435
尉	-11.4436
;(3)	-11.4436
fan	-11.4438
我司	-11.4439
伴随着	-11.444
霉素	-11.4441
胎盘	-11.4444
温暖的	-11.4444
等疾病	-11.4445
就越	-11.4445
事先	-11.4447
前台	-11.4447
这项	-11.4448
漏水	-11.4448
本网站	-11.4449
告诉我们	-11.4449
进取	-11.4449
大奖	-11.4449
太平洋	-11.4451
字幕	-11.4451
也许是	-11.4452
长相	-11.4452
结实	-11.4453
你觉得	-11.4453
绪	-11.4454
乌龟	-11.4455
桂花	-11.4456
亦可	-11.4458
公安局网络	-11.446
裴	-11.446
知道自己	-11.446
的人物	-11.4461
你所	-11.4462
这篇文章	-11.4463
经济发展	-11.4465
少儿	-11.4465
商人	-11.4466
俞	-11.4466
债务	-11.4467
俯	-11.447
小编为大家带来	-11.4471
gg	-11.4472
1990	-11.4472
是不一样的	-11.4473
气球	-11.4475
长发	-11.4475
农药	-11.4475
限量	-11.4476
航天	-11.4477
水泡	-11.4479
椎	-11.4479
却没有	-11.448
也是可以	-11.4481
为主的	-11.4483
无疑	-11.4485
托运	-11.4485
运动会	-11.4485
点燃	-11.4486
缝隙	-11.4487
市政府	-11.4487
盐酸	-11.4487
大数据	-11.4491
zz	-11.4491
-60	-11.4492
诗词	-11.4493
又不	-11.4494
也会有	-11.4494
152	-11.4496
遮阳	-11.4496
祠	-11.4497
接入	-11.4498
整天	-11.4498
烛	-11.4498
梢	-11.4498
躁	-11.4499
非常高	-11.4501
屋顶	-11.4502
凌晨	-11.4504
iv	-11.4504
魅族	-11.4504
洗浴	-11.4506
息肉	-11.4507
康熙	-11.4509
增值税	-11.4509
海岸	-11.4509
堪	-11.4509
)??	-11.451
海带	-11.4511
你是否	-11.4513
主治	-11.4513
辨	-11.4513
read	-11.4514
衷	-11.4514
跑车	-11.4514
发售	-11.4516
眼皮	-11.4516
超大	-11.4517
2.6	-11.4517
怀里	-11.4519
中部	-11.452
真题	-11.452
王朝	-11.452
笑容	-11.4521
免费的	-11.4521
恋情	-11.4521
格斗	-11.4524
芭	-11.4525
纸张	-11.4525
用户的选择优质解答	-11.4526
九龙	-11.4526
三层	-11.4527
有关的	-11.4528
瑾	-11.4528
店内	-11.4529
全都	-11.453
治好	-11.453
而导致	-11.4531
我用	-11.4531
绽放	-11.4531
什么事	-11.4532
控股	-11.4532
保鲜	-11.4533
法律法规	-11.4533
208	-11.4533
和小	-11.4537
在线咨询	-11.4542
||	-11.4542
回顾	-11.4542
乳液	-11.4543
猜测	-11.4543
有意	-11.4544
苗木	-11.4544
甘草	-11.4545
题主	-11.4545
历程	-11.4545
答病情分析	-11.4546
的幸福	-11.4547
育儿	-11.4547
杭	-11.4549
院长	-11.455
欢喜	-11.4551
课件	-11.4555
出席	-11.4557
天然气	-11.4559
民生	-11.4561
国防	-11.4562
功能的	-11.4563
阳县	-11.4563
致使	-11.4564
fl	-11.4564
很低	-11.4564
脊柱	-11.4565
担当	-11.4566
梦里	-11.4567
look	-11.4567
体型	-11.4567
环球	-11.4568
官方版	-11.4569
发黄	-11.4569
女性朋友	-11.4574
提出了	-11.4575
而定	-11.4575
孔雀	-11.4576
充实	-11.4579
离心	-11.458
开创	-11.4582
关怀	-11.4582
176	-11.4583
母婴	-11.4586
询	-11.4587
的命运	-11.4587
丢了	-11.4587
恶意	-11.4591
处在	-11.4592
变质	-11.4593
过多的	-11.4593
相传	-11.4594
手脚	-11.4594
内分泌失调	-11.4594
采购单	-11.4594
when	-11.4596
大佬	-11.4596
参赛	-11.4596
对我们	-11.4598
听着	-11.4598
有意思	-11.4601
油烟	-11.4601
瓶子	-11.4601
母乳	-11.4602
医疗保险	-11.4603
卒	-11.4603
年轻的	-11.4603
隐形	-11.4603
保洁	-11.4604
繁荣	-11.4606
旁边的	-11.4606
司马	-11.4607
活动的	-11.4607
伴随	-11.4607
传统文化	-11.4609
大豆	-11.4611
理工	-11.4611
做饭	-11.4611
个人资料	-11.4611
为客户提供	-11.4612
还没有个性签名哟热门指南	-11.4613
喉咙	-11.4614
装修公司	-11.4614
举例	-11.4614
在上面	-11.4615
底盘	-11.4617
悉	-11.4617
试着	-11.4617
现在是	-11.4619
尊敬的	-11.4621
how	-11.4622
武将	-11.4623
嚼	-11.4623
哭了	-11.4623
总额	-11.4623
是一名	-11.4624
解压	-11.4624
纯洁	-11.4624
色情	-11.4625
致命	-11.4625
人造	-11.4627
吸引了	-11.4628
的理由	-11.4629
遍布	-11.463
沥青	-11.463
1988	-11.463
能力和	-11.4631
彤	-11.4636
焉	-11.4636
isa	-11.4638
149	-11.4638
sof	-11.4638
个人的	-11.4639
一个星期	-11.464
读后感	-11.464
喵	-11.4641
顺着	-11.4641
把手	-11.4642
大巴	-11.4643
遥远	-11.4646
黄疸	-11.4648
这儿	-11.4649
为我	-11.4649
使用了	-11.4649
tion	-11.4651
手腕	-11.4652
症状变化等	-11.4653
的刺激	-11.4653
对了	-11.4654
惑	-11.4654
一个大	-11.4654
台上	-11.4655
高等教育	-11.4656
袜子	-11.4656
辽宁省	-11.4659
图解	-11.4661
麻木	-11.4661
画画	-11.4662
韩式	-11.4662
煮熟	-11.4662
水电	-11.4665
收费标准	-11.4666
ω	-11.4671
渠	-11.4672
利尿	-11.4675
king	-11.4676
巴西	-11.4677
总共	-11.4678
前途	-11.4679
师资	-11.468
她在	-11.4681
上手	-11.4682
intel	-11.4683
的印象	-11.4685
尽早	-11.4686
中国人民	-11.4687
周一至周日	-11.4688
初次	-11.4689
克拉	-11.4691
bu	-11.4694
巧妙	-11.4695
玩家可以	-11.4695
变换	-11.4695
辱	-11.4695
各国	-11.4695
早日	-11.4695
line	-11.4696
小猫	-11.4696
不完	-11.4696
间距	-11.4697
出国	-11.4698
生活方式	-11.47
皮下	-11.4703
短袖	-11.4703
县级	-11.4705
发芽	-11.4706
拼命	-11.4707
卓越	-11.4708
专业技术	-11.4709
小龙虾	-11.471
税务	-11.471
都已经	-11.4711
海边	-11.4712
谢谢你	-11.4712
备受	-11.4712
黄山	-11.4712
多见	-11.4712
超声	-11.4714
益气	-11.4714
超声波	-11.4717
热门城市	-11.4717
欢迎大家	-11.4717
南通	-11.472
大多数人	-11.472
我真的	-11.472
199	-11.4723
会立即联系您	-11.4724
风流	-11.4724
的路上	-11.4725
地形	-11.4725
感激	-11.4726
拆卸	-11.4726
希望你	-11.4727
凡是	-11.4727
能力强	-11.473
废物	-11.4731
的美	-11.4731
151	-11.4732
帧	-11.4733
但这	-11.4733
火烧	-11.4734
人称	-11.4734
的感受	-11.4734
最美的	-11.4735
吃点	-11.4737
7-	-11.4738
定点	-11.4738
终极	-11.4738
神奇的	-11.4739
gps	-11.474
上架	-11.474
茹	-11.4741
门外	-11.4741
不知不觉	-11.4741
后天	-11.4742
市公安局	-11.4743
7.2	-11.4743
泣	-11.4744
第九章	-11.4745
肽	-11.4745
你这	-11.4746
肤质	-11.4746
谁能	-11.4747
工程有限公司	-11.4748
帅哥	-11.475
大队	-11.475
虚弱	-11.4751
的风格	-11.4751
为之	-11.4751
胖子	-11.4752
风景区	-11.4753
骨科	-11.4753
双重	-11.4754
看好	-11.4754
根据自己的	-11.4755
全力	-11.4757
血清	-11.4759
非常大	-11.476
公正	-11.4761
嫂	-11.4762
哮喘	-11.4762
now	-11.4765
除尘器	-11.4765
适用范围	-11.4765
刘备	-11.4766
想看	-11.4768
求助	-11.4769
打败	-11.4771
络	-11.4771
这一切	-11.4771
通讯录	-11.4772
高频	-11.4772
vivox	-11.4773
放开	-11.4776
从来没有	-11.4777
忘记了	-11.4777
千米	-11.4777
挣	-11.478
幢	-11.478
我不是	-11.4781
局面	-11.4782
日下午	-11.4782
这几天	-11.4783
以上所展示的信息由	-11.4785
参考价	-11.4785
借鉴	-11.4785
下面小编就	-11.4788
详细信息	-11.4788
基础上	-11.4788
key	-11.4789
占比	-11.479
清朝	-11.4791
了几	-11.4791
去皮	-11.4793
种货品	-11.4795
想你	-11.4796
中奖	-11.4796
搬运	-11.4797
联网	-11.4798
大酒店	-11.4798
机械设备	-11.4798
死人	-11.4798
教大家	-11.48
大王	-11.48
箱子	-11.48
集团有限公司	-11.48
上级	-11.4801
之类	-11.4801
左右的	-11.4802
本期	-11.4802
25%	-11.4802
对人	-11.4803
出资	-11.4803
电动机	-11.4804
炎热	-11.4804
/0	-11.4806
闵	-11.4807
半月	-11.4807
治疗的	-11.4808
胳膊	-11.4809
tri	-11.4809
加入采购单	-11.481
看不见	-11.481
勾选	-11.481
极速	-11.481
新兴	-11.4811
那个人	-11.4814
know	-11.4814
半个月	-11.4816
网店	-11.4816
关系的	-11.4817
同年	-11.4818
拉开	-11.4818
养老保险	-11.4822
课题	-11.4822
的成长	-11.4822
慌	-11.4822
内有	-11.4822
)2.	-11.4824
螺栓	-11.4827
可以进行	-11.4827
层面	-11.4827
手镯	-11.483
画质	-11.483
一点的	-11.4831
卖的	-11.4832
厨师	-11.4833
杜甫	-11.4834
造价	-11.4836
吃东西	-11.4839
也很好	-11.4839
part	-11.484
大衣	-11.484
特别说明	-11.484
秒钟	-11.4841
有所不同	-11.4841
应付	-11.4842
天鹅	-11.4844
独立的	-11.4844
听过	-11.4844
仿真	-11.4845
主要成分	-11.4846
男方	-11.4847
头条	-11.4848
————	-11.4849
立足	-11.485
电热	-11.485
出示	-11.4851
很可能	-11.4851
忠诚	-11.4853
的真实	-11.4854
虫子	-11.4854
小巧	-11.4856
陪你	-11.4856
俗话说	-11.4856
5°	-11.4857
等特点	-11.4857
一起吃	-11.4857
位数	-11.4858
说你	-11.4858
绳子	-11.486
的正确	-11.4862
真爱	-11.4862
捕鱼	-11.4863
粪便	-11.4863
唐朝	-11.4865
花儿	-11.4865
螺纹	-11.4868
最喜欢	-11.4868
转化为	-11.4868
mah	-11.4869
上传客户端消息看过分享下载举报	-11.487
学会了	-11.487
出色的	-11.487
切记	-11.4872
租车	-11.4873
漂流	-11.4876
推拿	-11.4876
长出	-11.4877
手持	-11.4878
情形	-11.4878
远处	-11.4878
怎么做香哈菜谱	-11.4878
对话框	-11.4879
本网	-11.488
腹胀	-11.4881
燕子	-11.4882
勃	-11.4882
sta	-11.4883
要根据	-11.4884
开朗	-11.4886
实用的	-11.4886
小红	-11.4886
血小板	-11.4887
再加	-11.4888
会把	-11.489
心底	-11.489
不满意	-11.4892
整个人	-11.4893
粉刺	-11.4894
shop	-11.4895
×1	-11.4895
内脏	-11.4896
绍兴	-11.4897
是根据	-11.4897
12:00	-11.4898
美妙	-11.4898
欧阳	-11.4898
诱	-11.4899
执导	-11.4899
镜片	-11.49
mn	-11.49
ys	-11.4901
乖	-11.4902
排泄	-11.4902
患上	-11.4902
4.8	-11.4903
高山	-11.4903
)2	-11.4904
是我的	-11.4906
肺部	-11.4907
会上	-11.4907
进入了	-11.4907
誓	-11.4908
买个	-11.4908
不合	-11.4908
王爷	-11.4909
方言	-11.491
华南	-11.491
)2、	-11.4911
ou	-11.4911
沉重	-11.4911
叮	-11.4912
分辨	-11.4913
百度百科	-11.4913
猎人	-11.4913
得到的	-11.4915
水性	-11.4918
不能用	-11.4918
柜台	-11.4918
无所谓	-11.492
巳	-11.492
惊艳	-11.4921
借贷	-11.4923
了你	-11.4927
就更	-11.4929
介入	-11.493
;5.	-11.4933
阿尔	-11.4934
会更	-11.4936
课时	-11.4937
即是	-11.4938
主线	-11.4939
却被	-11.494
丰田	-11.4942
越来越多的	-11.4943
图片发自简书	-11.4944
om	-11.4945
一两	-11.4947
娱	-11.4951
石灰	-11.4952
希望我的回答	-11.4953
两三	-11.4953
的饮食	-11.4954
礼盒	-11.4955
明年	-11.4955
钛	-11.4955
戌	-11.4957
类游戏	-11.4957
信念	-11.4958
关键字	-11.4958
皇家	-11.4958
鲫鱼	-11.4958
草坪	-11.4959
征收	-11.496
响起	-11.496
双腿	-11.4961
约束	-11.4964
农场	-11.4965
麻辣	-11.4967
仅供	-11.497
两点	-11.4972
也是非常	-11.4973
腰椎	-11.4975
勇士	-11.4976
衡水	-11.4978
men	-11.4978
就不难	-11.498
入侵	-11.4981
不一	-11.4981
)[	-11.4981
树上	-11.4982
评选	-11.4982
路与	-11.4984
纸上	-11.4984
游戏的	-11.4986
硬卧	-11.4986
世人	-11.4988
专业从事	-11.4989
dl	-11.499
到时候	-11.4991
阻力	-11.4992
空气中	-11.4992
奎	-11.4996
食盐	-11.4998
(6	-11.4999
好好的	-11.4999
小游戏	-11.5
几千	-11.5003
掏	-11.5003
麟	-11.5005
长达	-11.5005
食谱	-11.5005
之美	-11.5006
广泛的	-11.5008
重心	-11.5011
开发的	-11.5011
服务有限公司	-11.5011
瞳	-11.5012
携程	-11.5016
五星	-11.5016
)2004-2018	-11.5017
我要提问	-11.5018
小子	-11.5019
)+	-11.5021
9.00	-11.5022
书名	-11.5024
让学生	-11.5025
配对	-11.5025
谷歌	-11.5028
iphonex	-11.5029
上看	-11.5031
锈	-11.5032
管理系统	-11.5033
格栅	-11.5035
节假日	-11.5035
保质期	-11.5036
日内	-11.5037
盘点	-11.5037
米粉	-11.5038
忙碌	-11.5038
×10	-11.5038
抛弃	-11.5039
中共	-11.504
跳跃	-11.5041
细小	-11.5041
使我	-11.5042
作息	-11.5044
首付	-11.5044
前面的	-11.5044
往往是	-11.5046
请注意	-11.5048
ht	-11.5049
搅拌均匀	-11.5049
选址	-11.505
狐臭	-11.505
累了	-11.505
花呗	-11.5051
落叶	-11.5051
账单	-11.5051
可以使	-11.5053
高尚	-11.5054
介绍了	-11.5055
小草	-11.5057
便会	-11.5058
斑点	-11.5058
talk	-11.5058
想必	-11.5058
耽误	-11.5058
扫描二维码	-11.5059
吵架	-11.5063
收起	-11.5064
了她	-11.5065
药材	-11.5069
哉	-11.5069
笙	-11.507
此事	-11.5071
水库	-11.5072
友们	-11.5072
知乎	-11.5072
que	-11.5072
芳香	-11.5073
的治疗方法	-11.5074
感悟	-11.5075
-200	-11.5075
棋牌	-11.5077
实体店	-11.508
这里是	-11.5081
就像是	-11.5082
白发	-11.5083
构件	-11.5083
use	-11.5084
一年级	-11.5084
的观点	-11.5084
自拍	-11.5084
剧本	-11.5085
明细	-11.5087
季度	-11.5087
海口	-11.509
正品行货	-11.509
能用	-11.509
有哪些呢	-11.5094
中外	-11.5095
木地板	-11.5095
能力的	-11.5097
理疗	-11.5099
笑了	-11.5099
:400-	-11.5099
加深	-11.5102
第三步	-11.5102
han	-11.5102
衡量	-11.5103
破损	-11.5103
食指	-11.5103
保健品	-11.5104
水量	-11.5104
障	-11.5106
3.8	-11.5107
很长	-11.5107
的对象	-11.5107
可以达到	-11.5107
三位	-11.5107
入睡	-11.5108
珊	-11.5108
最重要	-11.5109
电竞	-11.5109
对孩子	-11.511
修养	-11.511
异物	-11.5111
交替	-11.5112
学业	-11.5113
阎	-11.5113
九十	-11.5115
直流	-11.5116
口语	-11.5117
office	-11.5118
lt	-11.5119
卜	-11.5121
就这么	-11.5122
多重	-11.5125
奢	-11.5126
刑事	-11.5128
哺乳期	-11.5128
中评	-11.5129
干净的	-11.5129
软骨	-11.5129
专门的	-11.513
ary	-11.5133
磕	-11.5134
反派	-11.5134
7.8	-11.5135
的语言	-11.5136
り	-11.5136
辟	-11.5137
瞪	-11.5138
童装	-11.5138
署	-11.5139
的经典	-11.5139
第十章	-11.514
本田	-11.514
电子书	-11.5141
jia	-11.5141
这么大	-11.5142
试图	-11.5142
那位	-11.5144
根治	-11.5144
地址位于	-11.5146
受孕	-11.5147
莺	-11.5148
加盟费	-11.5148
若有	-11.5148
着她	-11.515
也不同	-11.5153
光荣	-11.5156
撸	-11.5156
商圈	-11.5157
心血管	-11.5159
皮革	-11.5159
沐浴	-11.5161
chi	-11.5161
汇报	-11.5161
益智	-11.5162
高新区	-11.5163
武装	-11.5163
这几个	-11.5163
make	-11.5164
反之	-11.5164
电脑上	-11.5164
的人员	-11.5165
酵素	-11.5166
title	-11.5166
全网	-11.5167
wu	-11.5168
的朋友们	-11.5168
消化道	-11.5171
”——	-11.5172
满意度	-11.5173
使用时	-11.5173
你也可以	-11.5173
夏日	-11.5176
淤	-11.5176
不便	-11.5177
合集	-11.5178
国道	-11.5179
勉强	-11.518
众生	-11.5181
规矩	-11.5182
浏览次数	-11.5183
的认识	-11.5184
调研	-11.5186
纹理	-11.5186
iii	-11.5187
支气管炎	-11.5187
公立	-11.5188
的英雄	-11.5189
全场	-11.5189
灾难	-11.519
已收录	-11.519
9.0	-11.5192
源文件收藏	-11.5195
大家的	-11.5195
碳水化合物	-11.5198
jpg	-11.52
质量好	-11.52
xy	-11.5204
鲤鱼	-11.5205
生涯	-11.5205
上一	-11.5205
脸型	-11.5206
判决	-11.5206
包含了	-11.5207
后就	-11.5207
如果你想	-11.5209
搜集	-11.5209
的考生	-11.521
我校	-11.5211
售票	-11.5213
培训班	-11.5214
指示灯	-11.5217
扎实	-11.5218
线圈	-11.5219
挂号	-11.5219
絮	-11.522
最美	-11.5222
票房	-11.5223
腥	-11.5226
阮	-11.5227
史上	-11.5228
慢慢地	-11.5228
语法	-11.5229
膨	-11.5231
文案	-11.5232
147	-11.5232
庆祝	-11.5233
网贷	-11.5234
的情感	-11.5235
根据你的	-11.5237
的一面	-11.5237
宗旨	-11.5237
秃	-11.5238
后会	-11.5238
总量	-11.5238
岁时	-11.5239
檐	-11.5239
才能够	-11.5241
les	-11.5241
潜水	-11.5243
会遇到	-11.5244
nc	-11.5245
硬座	-11.5245
我只	-11.5245
朗读	-11.5246
无声	-11.5248
=10	-11.5248
=7	-11.5249
other	-11.525
遣	-11.5251
压抑	-11.5255
转型	-11.5255
明朝	-11.5257
看法	-11.5258
首批	-11.5258
导向	-11.5259
坏死	-11.526
不仅仅	-11.5262
同名	-11.5263
强行	-11.5266
历史的	-11.5266
为其	-11.5268
eng	-11.5269
ǔ	-11.527
生的	-11.5271
的水果	-11.5271
年初	-11.5274
患处	-11.5275
疤	-11.5275
使用寿命	-11.5278
蔓	-11.5278
25.	-11.528
ū	-11.5281
授课	-11.5281
椰子	-11.5281
的乐趣	-11.5282
十个	-11.5282
后代	-11.5282
新能源	-11.5285
正在进行	-11.5286
了我的	-11.5286
会长	-11.5288
城乡	-11.5288
标价	-11.5288
顶尖	-11.5288
作风	-11.5289
六个	-11.5289
即为	-11.5289
没必要	-11.529
。(5)	-11.5291
游戏介绍	-11.5292
姓氏	-11.5292
球场	-11.5294
这首	-11.5296
风暴	-11.5297
名师	-11.5297
网友评论	-11.5297
输液	-11.5298
华山	-11.53
很有可能	-11.5301
art	-11.5303
了解下	-11.5303
儿歌	-11.5303
白金	-11.5303
痊愈	-11.5303
号京	-11.5304
洗发水	-11.5304
官员	-11.5304
的生产	-11.5305
4399	-11.5306
水准	-11.5308
瑜	-11.5309
吃到	-11.531
挤出	-11.5313
777	-11.5314
专升本	-11.5314
稿件	-11.5315
大树	-11.5315
哺乳	-11.5316
请教	-11.5317
泪水	-11.5318
long	-11.532
快点	-11.532
时间是	-11.5322
瞬	-11.5327
十分钟	-11.5329
不怎么	-11.5329
百度云	-11.533
城县	-11.533
受不了	-11.533
知名的	-11.5331
三维	-11.5331
020	-11.5331
我要投稿	-11.5332
得起	-11.5333
颜色的	-11.5333
钦	-11.5334
外侧	-11.5334
子孙	-11.5335
鱼缸	-11.5336
那么你	-11.5337
眼霜	-11.5337
>>〔	-11.5337
邪恶	-11.5337
れ	-11.5338
眼角	-11.534
黑头	-11.5341
极端	-11.5341
贯彻	-11.5342
有好处	-11.5344
昆山	-11.5346
尼亚	-11.5346
保定	-11.5349
唯有	-11.535
各省	-11.5353
再把	-11.5354
不合格	-11.5354
叛	-11.5355
〈	-11.5356
说实话	-11.5358
告诉大家	-11.5362
圆满	-11.5362
高大	-11.5363
长方形	-11.5365
部署	-11.5366
静音	-11.5368
名气	-11.5368
组词	-11.5369
你应该	-11.5369
隆鼻	-11.537
试用	-11.5371
容易引起	-11.5371
注意到	-11.5372
神秘的	-11.5372
热门资讯你可能对下面的内容感兴趣	-11.5372
最有	-11.5373
的形状	-11.5374
投标	-11.5374
居室	-11.5375
情景	-11.5376
安定	-11.5376
=5	-11.5377
做一些	-11.5378
误会	-11.538
纪录	-11.5381
夕阳	-11.5381
色的	-11.5382
鲜明	-11.5382
是一款非常	-11.5384
恶性肿瘤	-11.5385
多元	-11.5386
毒品	-11.5387
热烈	-11.5387
在选择	-11.5387
招牌	-11.5387
阜	-11.5388
点缀	-11.5389
299	-11.5389
本病	-11.539
复方	-11.539
你对	-11.539
知名品牌	-11.5391
先锋	-11.5393
精彩的	-11.5393
是用来	-11.5395
宽容	-11.5395
剃	-11.5395
进货	-11.5396
可以适当	-11.5396
ue	-11.5396
岩石	-11.5397
快穿	-11.5399
想吃	-11.5401
剪辑	-11.5402
在其	-11.5404
也是一个	-11.5405
怎么能	-11.5405
特别好	-11.5405
基础知识	-11.5407
海棠	-11.5408
婚后	-11.5408
暨	-11.5411
们都	-11.5411
(20	-11.5412
π	-11.5414
迅	-11.5415
皇上	-11.5415
难得	-11.5416
哨	-11.5417
直肠	-11.5418
眩晕	-11.5418
芦荟	-11.5418
机床	-11.5418
膜结构	-11.542
has	-11.542
料理	-11.5421
1.9	-11.5421
卸妆	-11.5421
遇上	-11.5422
相见	-11.5423
艺术家	-11.5423
年开始	-11.5423
至上	-11.5424
骨髓	-11.5424
阅读量	-11.5424
率先	-11.5427
晶体	-11.5427
的笑容	-11.5428
早点	-11.5428
法则	-11.5429
骁龙	-11.5429
隔壁	-11.5431
胡子	-11.5433
ger	-11.5433
热销	-11.5434
黔	-11.5437
刷牙	-11.5437
脑子	-11.5437
sb	-11.5439
奇妙	-11.544
跑了	-11.544
首先是	-11.5443
仙女	-11.5443
附着	-11.5444
但由于	-11.5444
虽然是	-11.5445
耻	-11.5447
彬	-11.5447
广泛应用于	-11.5449
可谓是	-11.5451
绩	-11.5456
的诊断	-11.5456
寂	-11.5456
开出	-11.5457
涉及到	-11.546
补丁	-11.546
一分钟	-11.546
作物	-11.546
感慨	-11.5461
营养物质	-11.5462
俺	-11.5462
提倡	-11.5463
看看别人怎么说的	-11.5464
清澈	-11.5464
26.	-11.5465
太小	-11.5467
洗手	-11.5467
泡脚	-11.5467
好呢	-11.5467
代办	-11.5469
农家	-11.5469
毯	-11.547
咪	-11.5471
屡	-11.5472
大招	-11.5472
间接	-11.5472
妾	-11.5473
丽江	-11.5475
起来的	-11.5476
营养丰富	-11.5476
24.	-11.5477
原谅	-11.5478
去买	-11.5479
开学	-11.5479
更方便	-11.5481
谁都	-11.5484
微创	-11.5485
每位	-11.5485
口号	-11.5486
鸽子	-11.5486
迷人	-11.5486
妈妈的	-11.5487
听语音	-11.5487
花草	-11.5487
2.00	-11.5488
卖出	-11.5489
打架	-11.549
残酷	-11.549
以下的	-11.5491
世家	-11.5491
一般人	-11.5491
利亚	-11.5492
所致的	-11.5493
吸水	-11.5493
再也不	-11.5495
操作简单	-11.5495
alt	-11.5496
经历过	-11.5496
尿酸	-11.5496
179	-11.5497
在上海	-11.5497
指导下	-11.5498
定向	-11.5499
od	-11.5499
迅雷	-11.5499
综合症	-11.5499
锅内	-11.55
敦	-11.55
同人	-11.55
男装	-11.5501
切实	-11.5502
地雷	-11.5502
聂	-11.5502
银河	-11.5504
洗头	-11.5504
桔	-11.5505
烘干	-11.5505
韧带	-11.5505
主导	-11.5506
淳	-11.5509
可以有效	-11.551
暴击	-11.551
荷叶	-11.5512
牛仔	-11.5512
标准化	-11.5513
更强	-11.5513
还有什么	-11.5513
打一	-11.5513
进出口	-11.5513
比较容易	-11.5515
有什么区别	-11.5515
有任何	-11.5515
通常是	-11.5517
潜在	-11.5517
倡导	-11.5519
防范	-11.552
hua	-11.5521
字样	-11.5521
减弱	-11.5522
是这样	-11.5522
孤单	-11.5522
只是一个	-11.5523
漠	-11.5529
盛开	-11.5529
尿频	-11.5529
这是一种	-11.5529
蜂窝	-11.5529
非常适合	-11.5531
藕	-11.5532
买车	-11.5533
ghz	-11.5534
插头	-11.5535
使之	-11.5535
贬	-11.5535
五官	-11.5537
多发	-11.5538
冷漠	-11.5539
不方便	-11.5539
晚报	-11.554
忍者	-11.554
可将	-11.5541
断裂	-11.5542
汗水	-11.5543
自己去	-11.5543
毁灭	-11.5543
趴	-11.5545
秘书	-11.5546
钢材	-11.5548
威力	-11.5549
而成的	-11.5549
盏	-11.5549
的品质	-11.555
车库	-11.5551
随即	-11.5552
建国	-11.5553
不带	-11.5556
这只	-11.5558
上演	-11.5558
经纪人	-11.5559
请在	-11.5559
不属于	-11.5562
无双	-11.5563
奥特曼	-11.5564
写字	-11.5565
三七	-11.5565
一间	-11.5565
窃	-11.5567
是多么	-11.5567
鄂	-11.557
到手机	-11.5571
诊所	-11.5571
决定了	-11.5572
225	-11.5573
职业学院	-11.5574
牛皮癣	-11.5574
汇聚	-11.5575
榨	-11.5576
)——	-11.5578
伸手	-11.5578
iu	-11.558
渺	-11.558
显示全部	-11.5581
9-	-11.5581
闽	-11.5583
小明	-11.5584
290	-11.5584
just	-11.5584
流泪	-11.5585
领先的	-11.5586
缠绕	-11.5586
js	-11.5588
平淡	-11.5592
真实性	-11.5593
限定	-11.5595
本质	-11.5595
硬化	-11.5597
你会发现	-11.5599
的到来	-11.5599
失调	-11.56
示例	-11.5602
佚名	-11.5602
sha	-11.5603
看下	-11.5604
红茶	-11.5604
tin	-11.5605
起身	-11.5605
索尼	-11.5608
>>>	-11.5608
ner	-11.5608
原作者	-11.5608
晖	-11.5609
的美好	-11.5611
画家	-11.5614
从来不	-11.5614
荐	-11.5615
五险一金	-11.5615
或者说	-11.5617
五百	-11.5618
开工	-11.5619
曾在	-11.562
的灵魂	-11.562
的话可以	-11.5623
负面	-11.5623
众所周知	-11.5624
way	-11.5625
地道	-11.5625
何处	-11.5625
说不定	-11.5626
烦躁	-11.5626
小花	-11.5626
も	-11.5626
记忆力	-11.5626
崩溃	-11.5627
集装箱	-11.5628
ン	-11.5628
为核心	-11.563
门前	-11.563
州区	-11.5631
小数	-11.5632
不同于	-11.5633
星球	-11.5635
ld	-11.5636
入驻	-11.5636
击杀	-11.5637
两面	-11.5638
缺氧	-11.5638
几款	-11.5641
肥料	-11.5642
扶持	-11.5642
一个问题	-11.5643
芦	-11.5643
------	-11.5643
一秒	-11.5643
还想	-11.5644
对你的	-11.5645
中文版	-11.5646
西医	-11.5646
水印	-11.5646
变大	-11.5647
紧凑	-11.5648
点个赞吧	-11.5649
说一下	-11.5649
必须是	-11.565
孩	-11.5651
变量	-11.5651
判定	-11.5652
地带	-11.5654
加载	-11.5656
创造了	-11.5657
年内	-11.5658
的经历	-11.566
的色彩	-11.5662
abc	-11.5664
4-5	-11.5664
处女	-11.5666
这方面	-11.5667
花花	-11.5668
如需	-11.567
233	-11.5671
9:00	-11.5673
173	-11.5673
的话题	-11.5674
back	-11.568
处置	-11.5682
峻	-11.5683
怀孕了	-11.5683
售楼处	-11.5685
路人	-11.5685
不予	-11.5686
战国	-11.5686
时段	-11.5688
教师资格证	-11.5689
花粉	-11.5689
都可	-11.5689
伦敦	-11.569
四方	-11.5691
的实力	-11.5691
也是有	-11.5692
地段	-11.5693
本文来源	-11.5693
动车	-11.5693
国庆	-11.5694
公务员考试	-11.5694
也称	-11.5694
务必	-11.5695
370	-11.5695
刻意	-11.5696
贵人	-11.5696
sun	-11.5696
工作经验	-11.5697
私密	-11.5699
用车	-11.57
海关	-11.5701
导出	-11.5701
营养不良	-11.5701
别说	-11.5704
离合器	-11.5705
安神	-11.5705
凿	-11.5707
泌尿	-11.5708
上市公司	-11.5709
周公解梦	-11.571
大规模	-11.5711
只要有	-11.5712
山县	-11.5713
禁用	-11.5714
嗜	-11.5714
解梦	-11.5714
周一	-11.5715
霄	-11.5716
分钟内	-11.5716
松开	-11.5717
威海	-11.5719
的整体	-11.5719
东站	-11.5719
会比较	-11.5719
的食品	-11.5719
庐	-11.572
蚁	-11.5721
角膜	-11.5721
愿你	-11.5721
的成分	-11.5721
短语	-11.5722
磷酸	-11.5723
璐	-11.5723
遗址	-11.5726
后遗症	-11.5726
很满意	-11.5727
类似的	-11.5727
巨人	-11.5728
气的	-11.5728
nu	-11.573
最小起订量	-11.573
全景	-11.573
仅仅是	-11.5731
希望帮助您更好解决问题什么是	-11.5731
ina	-11.5731
离去	-11.5731
最后一个	-11.5732
否定	-11.5732
请不要	-11.5732
配色	-11.5734
有保障	-11.5734
适量的	-11.5734
一味	-11.5734
发泡	-11.5735
痘印	-11.5737
能达到	-11.5737
活塞	-11.5737
333	-11.5741
界的	-11.5742
疲惫	-11.5742
steam	-11.5745
深刻的	-11.5745
xl	-11.5746
香菜	-11.5747
你这个	-11.5748
样品	-11.5749
染色	-11.5749
新手帮助	-11.5749
猿	-11.5749
拿来	-11.5752
正方形	-11.5753
难点	-11.5753
容易导致	-11.5753
演奏	-11.5755
奇幻	-11.5755
健全	-11.5758
tic	-11.576
剁	-11.576
押金	-11.5762
戒烟	-11.5764
改变了	-11.5764
列出	-11.5765
亮相	-11.5765
质保	-11.5766
的含量	-11.5767
95%	-11.5768
大面积	-11.5768
民办	-11.5768
青菜	-11.5769
盖子	-11.5769
它可以	-11.5773
目的是	-11.5775
课本	-11.5775
情报	-11.5777
问了	-11.578
分割	-11.578
为什么不	-11.578
近代	-11.5781
时应	-11.5783
香油	-11.5784
。10.	-11.5784
起伏	-11.5785
负载	-11.5788
红细胞	-11.5788
单品	-11.5791
银屑病	-11.5792
会发现	-11.5792
婚纱	-11.5792
城堡	-11.5794
任性	-11.5795
td	-11.5795
战术	-11.5796
你家	-11.5799
体制	-11.58
的兴趣	-11.5801
微波炉	-11.5802
棘	-11.5802
深夜	-11.5802
口径	-11.5803
朝着	-11.5804
有不同的	-11.5808
tianyancha	-11.581
服务平台	-11.581
这才	-11.581
小人	-11.5812
df	-11.5813
推荐医生更多	-11.5813
这块	-11.5814
功能性	-11.5816
文化的	-11.5816
底层	-11.5816
总监	-11.5818
短视频	-11.5818
边上	-11.5819
毕业后	-11.582
20000	-11.582
口中	-11.582
动感	-11.5821
420	-11.5821
解决办法	-11.5822
硬币	-11.5823
从业	-11.5825
浓郁	-11.5827
细细	-11.583
缘分	-11.583
饮食上	-11.583
粉尘	-11.5831
容积	-11.5835
一体机	-11.5835
167	-11.5836
陷阱	-11.5839
体的	-11.5839
受凉	-11.5841
长辈	-11.5841
急救	-11.5842
wen	-11.5842
搜狗指南	-11.5843
疱疹	-11.5845
来月经	-11.5846
较差	-11.5847
纯正	-11.5847
:4.0	-11.585
板上	-11.585
火影	-11.5851
筷子	-11.5851
洗车	-11.5853
在做	-11.5855
8.8	-11.5858
并不能	-11.5858
的热量	-11.586
理工大学	-11.586
生活中的	-11.586
普通人	-11.5861
融化	-11.5861
与此同时	-11.5862
人也	-11.5862
res	-11.5863
的魅力	-11.5863
汇集	-11.5864
点了	-11.5865
经济学	-11.5865
标配	-11.5868
这样的话	-11.5869
7-8	-11.587
短暂	-11.5872
存在着	-11.5872
。(1)	-11.5874
万达	-11.5875
水龙头	-11.5875
一家人	-11.5877
老头	-11.5878
外婆	-11.5878
心率	-11.588
复仇	-11.588
%2	-11.588
另有	-11.5881
膝关节	-11.5882
说他	-11.5882
的两个	-11.5883
到站	-11.589
rpg	-11.5892
不要再	-11.5892
啸	-11.5894
适度	-11.5894
上天	-11.5895
指到	-11.5898
测评	-11.5898
羊毛	-11.5898
也可以用	-11.5899
容易出现	-11.59
透视	-11.5901
固定的	-11.5901
翻新	-11.5903
随身	-11.5904
累积	-11.5905
此后	-11.5906
消费者的	-11.5908
060365	-11.591
的传统	-11.5913
日出	-11.5913
7.1	-11.5914
世纪科技有限公司版权所有	-11.5914
圣诞	-11.5914
11010348	-11.5914
:400-044-5288?	-11.5914
×2	-11.5915
的责任	-11.5915
国标	-11.5916
众鸣	-11.5916
后可	-11.5916
11010502027103]	-11.5917
偏方	-11.5917
我感觉	-11.5918
-2014-00	-11.5919
不规则	-11.5919
扶贫	-11.5925
绮	-11.5926
向外	-11.5926
裂缝	-11.5926
配有	-11.5926
。"	-11.5926
武术	-11.5928
手柄	-11.5928
部位的	-11.5928
荧光	-11.5932
email	-11.5932
同款	-11.5932
爱护	-11.5934
四月	-11.5935
很适合	-11.5935
果断	-11.5937
应用于	-11.5938
民俗	-11.5939
一瞬间	-11.594
和社会	-11.5943
建议大家	-11.5944
第十一章	-11.5944
动物园	-11.5944
捐	-11.5946
265	-11.5946
type	-11.5947
东海	-11.5947
请看	-11.5948
体现了	-11.5948
断了	-11.5949
为大家介绍	-11.5949
如果你的	-11.595
从不	-11.595
后宫	-11.5952
投影	-11.5952
装扮	-11.5954
焕	-11.5957
本来就	-11.5957
煤气	-11.5958
数额	-11.5958
影音	-11.596
篷	-11.596
辅料	-11.5961
在校	-11.5962
3500	-11.5962
嘉兴	-11.5962
暂无报价	-11.5964
是什么呢	-11.5967
相对来说	-11.5968
可以获得	-11.597
闭合	-11.597
医科大学	-11.5975
318	-11.5975
eg	-11.5976
寄生虫	-11.5976
渲染	-11.5976
董事	-11.5977
hb	-11.5978
滋养	-11.5978
义乌	-11.5978
私信	-11.5978
小编为大家	-11.598
2》	-11.598
专长	-11.5982
装配	-11.5982
病毒感染	-11.5982
划线	-11.5985
根据你	-11.5986
司法风险	-11.5986
浓缩	-11.5988
苏联	-11.5988
的书	-11.5989
中途	-11.5989
不低于	-11.599
窗外	-11.5991
华为手机	-11.5993
我们应该	-11.5993
听说过	-11.5993
的空气	-11.5994
冰冷	-11.5996
的歌曲	-11.5996
tb	-11.5998
大雨	-11.5998
台词	-11.5998
初三	-11.5998
得太	-11.5999
6.8	-11.5999
栗	-11.6
ug	-11.6001
点点	-11.6001
down	-11.6001
出差	-11.6001
gm	-11.6002
这是一款	-11.6003
log	-11.6003
899	-11.6004
对付	-11.6005
单车	-11.6005
该剧	-11.6005
强劲	-11.6006
相识	-11.6007
mini	-11.6007
专柜	-11.6007
倒车	-11.6007
1-5	-11.6008
打死	-11.6008
全文阅读	-11.6008
加厚	-11.601
详细说明	-11.601
宫颈癌	-11.6011
29.	-11.6012
这样的情况	-11.6013
铸造	-11.6016
反思	-11.6016
桌椅	-11.6017
梦者	-11.6017
万千	-11.6018
迷茫	-11.6018
了他的	-11.6019
在职	-11.602
看看吧	-11.6022
的艺术	-11.6022
泥土	-11.6025
夜里	-11.6028
方块	-11.6028
包围	-11.6029
未必	-11.6029
送货	-11.6029
好用的	-11.6029
的理念	-11.603
味甘	-11.603
挫	-11.603
厦	-11.603
二月	-11.6031
坚硬	-11.6032
盛世	-11.6032
呵	-11.6033
昕	-11.6033
精神病	-11.6035
。11、	-11.6035
列入	-11.6035
:2015-	-11.6035
共计	-11.6039
快捷键	-11.6039
为好	-11.604
上图	-11.6044
680	-11.6044
年华	-11.6044
三年级	-11.6045
μ	-11.6046
批发市场	-11.6047
踪	-11.6047
182	-11.6047
磅	-11.6047
主任医师教授	-11.6049
滋阴	-11.605
致电	-11.6051
切断	-11.6053
鼻腔	-11.6053
干脆	-11.6055
再度	-11.6055
两端	-11.6055
录取分数线	-11.6055
与您	-11.6056
肾病	-11.6056
快来给	-11.6056
人之	-11.6058
一站式	-11.606
对接	-11.6061
这套	-11.6062
格力	-11.6063
整形美容	-11.6063
肝硬化	-11.6065
生机	-11.6066
kv	-11.6066
阿胶	-11.6067
没啥	-11.6067
莫大的鼓励	-11.6068
涂层	-11.607
自愿	-11.607
9999	-11.6071
否认	-11.6071
今生	-11.6072
梅毒	-11.6073
控制系统	-11.6074
网吧	-11.6074
菜谱	-11.6074
字典	-11.6074
白斑	-11.6074
本土	-11.6074
饥	-11.6076
咽喉	-11.6076
沧州	-11.6076
国人	-11.6077
极度	-11.6077
く	-11.6077
投保	-11.6079
等因素	-11.608
算了	-11.608
诠释	-11.608
品类齐全	-11.6081
商量	-11.6081
要求的	-11.6081
6-	-11.6082
非凡	-11.6084
余人	-11.6085
彩超	-11.6085
主要包括	-11.6086
北大	-11.6086
背包	-11.6087
sen	-11.6087
——“	-11.6088
双人	-11.6089
关注的	-11.6089
的具体资料	-11.609
放过	-11.6091
不了解	-11.6094
:400-6	-11.6095
帮助你	-11.6095
/7	-11.6095
班长	-11.6095
预告	-11.6098
还有一种	-11.6098
4-	-11.6098
可靠的	-11.61
看电影	-11.6101
华东	-11.6102
杰出	-11.6103
这一天	-11.6104
fr	-11.6104
啼	-11.6104
溅	-11.6105
散文	-11.6105
不着	-11.6105
你喜欢	-11.6107
的反应	-11.6107
able	-11.6108
贵州省	-11.6108
霸道	-11.611
军区	-11.611
那我	-11.6112
自有	-11.6112
教师资格	-11.6113
热心	-11.6114
粘连	-11.6115
红军	-11.6116
妇科疾病	-11.6118
盆腔	-11.6119
影响到	-11.612
的物品	-11.6121
开的	-11.6121
数百	-11.6122
烷	-11.6122
安卓手机	-11.6123
萝莉	-11.6126
产品图片等产品介绍信息	-11.6126
的资料	-11.6126
中关村在线	-11.6126
战役	-11.6128
纳入	-11.613
让我们一起	-11.613
的详细产品价格	-11.613
业界	-11.613
的房间	-11.6131
27.	-11.6131
填料	-11.6132
石墨	-11.6132
abs	-11.6133
打字	-11.6133
霉菌	-11.6134
下面小编	-11.6134
西西	-11.6134
假货	-11.6135
的风景	-11.6136
amp	-11.6137
当归	-11.6137
两张	-11.6137
的长度	-11.6139
初一	-11.614
书店	-11.614
枢纽	-11.6142
ま	-11.6142
之分	-11.6143
古老的	-11.6145
冶	-11.6145
寻常	-11.6146
平民	-11.6146
每一天	-11.6147
招标	-11.6148
那样的	-11.6149
又如	-11.6149
面具	-11.6149
您可以直接联系厂家获取	-11.615
长生	-11.615
批次	-11.615
部长	-11.615
专业化	-11.615
可怕的	-11.615
的回答不错	-11.6151
玛丽	-11.6151
半个	-11.6153
字作文	-11.6153
丰满	-11.6153
一棵	-11.6154
了多少	-11.6155
还不如	-11.6155
和发展	-11.6155
的评价	-11.6156
臻	-11.6157
1991	-11.6159
银川	-11.6159
只有在	-11.616
的支持是对作者	-11.6161
斯坦	-11.6161
暧昧	-11.6163
凄	-11.6163
正常人	-11.6164
的小说	-11.6165
看电视	-11.6165
师父	-11.6166
wei	-11.6166
磁场	-11.6167
白银	-11.6167
用户可以	-11.6168
宰	-11.6169
点开	-11.6169
减小	-11.6171
不确定	-11.6172
脚下	-11.6175
分享给	-11.6176
00:00	-11.6178
骚扰	-11.6179
写真	-11.6179
光纤	-11.618
饱和	-11.6184
ban	-11.6184
7.6	-11.6184
细菌感染	-11.6187
以为是	-11.619
运动鞋	-11.619
还是会	-11.6191
参加了	-11.6191
商贸	-11.6191
(9)	-11.6192
不停的	-11.6193
不留	-11.6194
腮	-11.6194
第一名	-11.6196
切开	-11.6196
特长	-11.6197
的项目	-11.6197
抵达	-11.6198
我妈	-11.6202
5.1	-11.6202
摄取	-11.6204
挽回	-11.6204
遗忘	-11.6205
赢得了	-11.6205
数的	-11.6205
彪	-11.6206
花期	-11.6206
僵	-11.6207
当然也	-11.6207
海滩	-11.6209
着他	-11.6209
唇膏	-11.6211
184	-11.6213
light	-11.6215
是一家集	-11.6216
妈咪	-11.6221
晚会	-11.6221
就成了	-11.6221
制成的	-11.6223
人工智能	-11.6223
多食	-11.6224
担忧	-11.6224
可能导致	-11.6224
肥大	-11.6226
交纳	-11.6227
143	-11.6228
大同	-11.6229
专业知识	-11.6229
修真	-11.623
能把	-11.623
役	-11.6231
重力	-11.6231
往返	-11.6233
谈谈	-11.6234
也是很	-11.6236
与之	-11.6237
人多	-11.6237
工作原理	-11.6237
新书	-11.6239
踏上	-11.6239
光源	-11.624
药剂	-11.624
全能	-11.6243
安全感	-11.6243
叙	-11.6244
请及时	-11.6247
九游	-11.6247
交互	-11.6247
拼接	-11.6247
沸腾	-11.6251
考查	-11.6252
因为在	-11.6252
花盆	-11.6252
七八	-11.6253
赠送医生锦旗	-11.6253
不理	-11.6253
注意饮食	-11.6254
。2)	-11.6255
万左右	-11.6255
养血	-11.6256
有网友	-11.6257
710	-11.6257
骨架	-11.6257
的认可	-11.6259
原厂	-11.626
环绕	-11.6261
我心里	-11.6261
罕见	-11.6261
md	-11.6265
武功	-11.6265
包容	-11.6266
境外	-11.6266
希望对	-11.6267
应用平台	-11.6268
纺	-11.6268
tf	-11.6269
谈话	-11.627
地暖	-11.6271
1984	-11.6272
工作者	-11.6273
手链	-11.6273
孵化	-11.6273
试点	-11.6274
的道路	-11.6276
:400-871-6266	-11.6276
冉	-11.6276
朔	-11.6277
正在加载中	-11.6278
的道理	-11.6278
不被	-11.6278
最简单的	-11.6278
用自己的	-11.6279
有何	-11.628
红旗	-11.6281
去医院检查	-11.6281
做起	-11.6282
9000	-11.6282
用地	-11.6285
二次元	-11.6285
树林	-11.6286
原有	-11.6286
出锅	-11.6287
抑	-11.6287
可视	-11.6287
就必须	-11.6288
条纹	-11.629
中国移动	-11.629
wang	-11.629
我发现	-11.6291
少爷	-11.6292
雷锋	-11.6292
沧	-11.6292
纯棉	-11.6293
生产企业	-11.6294
第三个	-11.6295
事宜	-11.6297
内在	-11.6297
的经营	-11.6297
片段	-11.6297
燕麦	-11.6298
追逐	-11.6299
打法	-11.6303
陀	-11.6303
塌	-11.6304
修建	-11.6305
矩	-11.6305
和朋友	-11.6305
山顶	-11.6305
手中的	-11.6306
第二种	-11.6306
天天低价	-11.6308
泌尿外科	-11.6308
终究	-11.6309
上千	-11.6311
某人	-11.6312
5.2	-11.6313
赌博	-11.6313
不需	-11.6314
源自	-11.6316
不停地	-11.6317
扛	-11.6319
组件	-11.6321
鸦	-11.6322
抬起	-11.6323
还将	-11.6324
以上内容	-11.6324
击败	-11.6325
抢救	-11.6325
轻松购物	-11.6326
1-8	-11.6326
呈现出	-11.6328
216	-11.6329
美颜	-11.6329
想念	-11.6332
28.	-11.6332
白细胞	-11.6333
造成了	-11.6334
拿下	-11.6334
555	-11.6334
优酷	-11.6337
樊	-11.6337
舒缓	-11.6337
光临	-11.6338
的前提下	-11.6338
不难	-11.6338
游戏类型	-11.6339
5)	-11.6342
饥饿	-11.6344
男主角	-11.6345
的一项	-11.6346
聚乙烯	-11.6346
检查结果	-11.6346
的特征	-11.6347
∶	-11.6349
发行时间	-11.6349
杜绝	-11.6349
比较少	-11.6349
为他	-11.635
荔枝	-11.635
是怎样	-11.6351
大大的	-11.6351
张开	-11.6353
成功率	-11.6353
济宁	-11.6354
相伴	-11.6356
不服	-11.6358
因为他们	-11.6359
宿主	-11.6359
我最	-11.6359
认识到	-11.6359
出一个	-11.636
旗下的	-11.636
黄页	-11.6361
周日	-11.6363
好感	-11.6367
吃货	-11.6367
bios	-11.6367
一心	-11.6367
乳腺癌	-11.6367
手绘	-11.6368
供货	-11.6369
嗓子	-11.6369
在同一	-11.637
绵阳	-11.6371
找了	-11.6371
找工作	-11.6373
窥	-11.6376
洁白	-11.6377
六月	-11.6377
半岛	-11.6377
率高	-11.6377
桌上	-11.6378
生抽	-11.6379
name	-11.6379
平时注意	-11.6382
租金	-11.6383
不再是	-11.6384
吗回答	-11.6384
510	-11.6384
防守	-11.6385
2=	-11.6386
4.7	-11.6386
手势	-11.6386
收回	-11.6387
迎来	-11.6387
镶	-11.6387
喂养	-11.6388
胚	-11.6388
旨在	-11.6389
本产品	-11.6391
缩写	-11.6391
英文名	-11.6391
娅	-11.6394
的关注	-11.6395
感知	-11.6398
热搜	-11.6399
点击查看	-11.64
存活	-11.64
还是不错的	-11.6401
1989	-11.6401
汕头	-11.6402
之后就	-11.6403
软卧	-11.6404
想做	-11.6404
给大家介绍	-11.6404
old	-11.6405
:1)	-11.6405
璧	-11.6405
是无法	-11.6407
高等	-11.6407
的通知	-11.6408
木耳	-11.6409
蒲公英	-11.641
音节	-11.641
任职	-11.641
单个	-11.6412
等相关	-11.6412
3.4	-11.6413
生效	-11.6414
同等	-11.6415
积极的	-11.6415
ut	-11.6415
辖	-11.6418
用温水	-11.6419
男科医院	-11.6419
想买	-11.642
nh	-11.6421
传染性	-11.6422
最佳的	-11.6423
ren	-11.6424
及时的	-11.6425
周到	-11.6426
选出	-11.6428
片子	-11.643
污水处理	-11.6431
尿道炎	-11.6431
时间长	-11.6431
偏偏	-11.6432
背叛	-11.6433
第十二章	-11.6433
极速配送	-11.6434
如何设置	-11.6436
受益	-11.6436
て	-11.6437
pet	-11.6437
推荐用药	-11.6438
多层	-11.6439
中如何	-11.6439
大象	-11.6439
多仓直发	-11.644
land	-11.6441
自豪	-11.6441
的经营理念	-11.6441
轻轻地	-11.6443
的检查	-11.6444
事后	-11.6444
双向	-11.6445
精致服务省	-11.6445
何必	-11.6447
畅选无忧	-11.645
指南特色服务	-11.645
驶	-11.6451
探究	-11.6452
wx	-11.6452
噪声	-11.6453
lz	-11.6455
魔术	-11.6456
142	-11.6456
棉花	-11.6456
他们在	-11.6457
春雨	-11.6457
稠	-11.6457
为用户提供	-11.646
奢华	-11.646
联系时请说明是在慧聪网看到的	-11.646
high	-11.6461
慧聪网厂家	-11.6462
顺畅	-11.6462
敌方	-11.6464
借口	-11.6464
)》	-11.6465
车管所	-11.6465
加了	-11.6467
锚	-11.6468
1985	-11.647
我这	-11.6471
少见	-11.6471
争夺	-11.6473
mat	-11.6474
这么说	-11.6474
奋	-11.6475
垃圾桶	-11.6475
跨越	-11.6477
?1.	-11.6477
1400	-11.6478
4.3	-11.6478
▁关注京东客户服务网站导航搜索	-11.6481
1987	-11.6481
再也	-11.6482
中国古代	-11.6482
β	-11.6484
东南亚	-11.6486
性爱	-11.6487
优良的	-11.6488
形容词	-11.6489
一经	-11.6489
暖暖	-11.649
希望能够	-11.6491
旅游景点	-11.6492
唤	-11.6492
一所	-11.6493
矢	-11.6493
红外	-11.6493
氯化	-11.6493
拉着	-11.6494
耿	-11.6495
诵	-11.6495
的职业	-11.6496
股价	-11.6498
不会再	-11.6498
借钱	-11.6499
觉得很	-11.6501
掺	-11.6502
301	-11.6502
多样化	-11.6502
岁了	-11.6503
艰苦	-11.6503
了好多	-11.6503
层层	-11.6503
去哪里	-11.6505
:400-888-5105??	-11.6505
次下载标签	-11.6505
村里	-11.6506
苏轼	-11.6509
破了	-11.6509
她就	-11.651
所以要	-11.651
阴谋	-11.651
旅途	-11.651
号称	-11.651
恰当	-11.6511
都是在	-11.6512
墩	-11.6513
光亮	-11.6513
cb	-11.6514
反复发作	-11.6514
真理	-11.6515
的模样	-11.6515
彰显	-11.6516
成为一个	-11.6519
命题	-11.652
产品价格	-11.6521
切勿	-11.6521
光彩	-11.6522
午餐	-11.6524
销售额	-11.6525
出台	-11.6527
青龙	-11.6529
口子	-11.6529
三点	-11.6536
我们一起	-11.6537
把自己的	-11.6537
可以到	-11.6538
顶端	-11.6539
管材	-11.6539
网友们	-11.6539
聊天记录	-11.6541
给他们	-11.6543
冀	-11.6543
西宁	-11.6543
书房	-11.6545
郁闷	-11.6547
±	-11.6547
坐车	-11.6548
见于	-11.655
半天	-11.6552
匙	-11.6553
魔王	-11.6553
tothe	-11.6554
写下	-11.6555
修仙	-11.6555
美洲	-11.6555
野外	-11.6555
人喜欢	-11.6555
驾车	-11.6556
ling	-11.6556
怪兽	-11.6556
音质	-11.6557
等方式	-11.6558
土豪	-11.6558
写字楼	-11.6559
诚实	-11.6562
是啊	-11.6562
历年	-11.6565
患儿	-11.6565
141	-11.6567
经销	-11.6569
被骗	-11.6569
的人来说	-11.6569
之作	-11.657
巍	-11.657
主办	-11.6571
债券	-11.6573
太极	-11.6574
末世	-11.6576
ā	-11.6578
起源	-11.6578
也算是	-11.658
小贴士	-11.6581
著作	-11.6581
日光	-11.6582
的原理	-11.6582
嘿	-11.6582
艺术品	-11.6583
梳理	-11.6584
系列的	-11.6585
友情提示	-11.6585
排名第	-11.6585
职能	-11.6586
而去	-11.6587
灯箱	-11.6587
1980	-11.6587
198	-11.6587
找我	-11.6588
205	-11.6589
只能说	-11.659
18:00	-11.6591
遵	-11.6591
我才	-11.6591
快要	-11.6591
他对	-11.6592
沿海	-11.6592
明确的	-11.6592
主管部门	-11.6593
在日本	-11.6594
四处	-11.6595
了怎么办	-11.6595
产品地区	-11.6597
要保持	-11.6598
出生于	-11.6599
的技能	-11.66
日适合结婚	-11.6601
个人觉得	-11.6604
哭泣	-11.6605
老家	-11.6605
心头	-11.6607
在脸上	-11.6607
适合自己的	-11.6607
207	-11.661
吉日	-11.661
之后再	-11.6613
的特性	-11.6613
资格考试	-11.6613
崎	-11.6614
按规定	-11.6614
放射	-11.6618
业内	-11.6619
无缝	-11.662
叠加	-11.6621
凝固	-11.6621
说自己	-11.6623
降压	-11.6624
美容院	-11.6625
乐队	-11.6626
水利	-11.6626
昏迷	-11.663
整车	-11.663
第一种	-11.6631
cat	-11.6633
烘焙	-11.6634
发了	-11.6634
的解释	-11.6634
第二百	-11.6635
龙门	-11.6636
变得更	-11.6636
之子	-11.6636
医疗机构	-11.6636
宪	-11.6638
仅为	-11.6638
打扫	-11.6639
借款人	-11.664
ob	-11.664
是国家	-11.6641
指引	-11.6642
的教学	-11.6645
face	-11.6646
互联网交易中的风险是客观存在的	-11.6646
制造商	-11.6646
3.7	-11.6648
今天小编就	-11.6648
满满	-11.6648
日月	-11.6649
剩下	-11.6649
配偶	-11.665
请意识到	-11.6651
常有	-11.6652
较长	-11.6653
锰	-11.6653
供水	-11.6654
潇洒	-11.6657
购买的	-11.6658
祭祀	-11.6658
专科医院	-11.6658
郝	-11.6658
煜	-11.6659
贴膜	-11.6659
光辉	-11.666
世界妙妙妙	-11.666
反抗	-11.6661
的特殊	-11.6663
当场	-11.6663
是自己	-11.6665
我心	-11.6665
谜底	-11.6666
266	-11.6666
卖家自行	-11.6667
凹陷	-11.6668
新剧	-11.6668
的妻子	-11.667
两岸	-11.667
.3.	-11.6673
很棒	-11.6673
祝您	-11.6673
百搭	-11.6674
双脚	-11.6674
我从	-11.6674
卖家负责	-11.6674
短路	-11.6676
整洁	-11.6677
到当前日期	-11.6679
深深的	-11.6679
202	-11.6679
血栓	-11.668
浓厚	-11.668
5-10	-11.668
切口	-11.6682
218	-11.6683
点半	-11.6683
之事	-11.6684
开头的	-11.6685
都想	-11.6685
床头	-11.6685
宸	-11.6686
人们对	-11.6688
画风	-11.6688
</	-11.6689
大洋	-11.669
您在慧聪网上采购商品属于商业贸易行	-11.6691
星辰	-11.6691
来袭	-11.6692
:--	-11.6693
投资人	-11.6693
菩提	-11.6694
肝胆	-11.6694
较多的	-11.6695
但它	-11.6695
情人节	-11.6696
力学	-11.6697
纽	-11.6697
女演员	-11.6698
村庄	-11.6698
分店	-11.6698
血症	-11.6698
血流	-11.6698
往后	-11.67
呐	-11.67
吃起来	-11.67
鸡汤	-11.67
说得	-11.6701
患病	-11.6701
委书记	-11.6701
很漂亮	-11.6704
看待	-11.6704
dns	-11.6704
step	-11.6705
长大了	-11.6705
要好	-11.6705
看点	-11.6705
根据您	-11.6706
1986	-11.6707
执业	-11.6708
切忌	-11.6708
保守	-11.6708
减退	-11.6709
锻炼身体	-11.6709
敢于	-11.671
不给	-11.671
水上	-11.671
大风	-11.6711
不全	-11.6711
壬	-11.6712
就是我们	-11.6713
白领	-11.6713
弥漫	-11.6713
环境中	-11.6714
二年	-11.6714
恼	-11.6715
存档	-11.6715
多名	-11.6717
染发	-11.6718
方可	-11.6722
蚀	-11.6723
倍数	-11.6724
灯泡	-11.6725
折纸	-11.6725
原版	-11.6726
烧开	-11.6726
154	-11.6728
6.2	-11.6729
技术和	-11.673
吃一些	-11.6731
端口	-11.6732
相关资源	-11.6735
失效	-11.6736
-----	-11.6736
车祸	-11.6736
沉积	-11.6738
色斑	-11.6741
木头	-11.6741
烙	-11.6742
京城	-11.6743
甜甜	-11.6744
纪录片	-11.6746
往往会	-11.6746
节课	-11.6746
本店	-11.6747
电话号码	-11.6747
老实	-11.6748
指点	-11.6748
臭味	-11.6749
城市的	-11.6749
光盘	-11.6753
有序	-11.6753
石膏	-11.6755
稀有	-11.6757
吸气	-11.6759
为啥	-11.6759
工商局	-11.6761
毕竟是	-11.6761
致富	-11.6762
未婚	-11.6763
言论	-11.6763
万多	-11.6764
重置	-11.6764
被迫	-11.6764
变得更加	-11.6765
的根本	-11.6768
语句	-11.6769
往来	-11.6769
建筑工程	-11.6769
尺码	-11.677
流星	-11.677
冲泡	-11.677
纤维素	-11.677
惩	-11.6771
不论是	-11.6771
烟草	-11.6773
复兴	-11.6774
装上	-11.6774
非常好的	-11.6774
我个人	-11.6774
放弃确定报告	-11.6776
乳汁	-11.6777
具有良好的	-11.678
不要用	-11.678
这些人	-11.6782
数目	-11.6783
展会	-11.6784
邯郸	-11.6784
国有	-11.6784
见解	-11.6784
充气	-11.6785
下载安装	-11.6788
期刊	-11.6788
钢丝	-11.679
涂上	-11.6791
理事	-11.6791
ence	-11.6792
多元化	-11.6793
片刻	-11.6793
丝袜	-11.6794
贝尔	-11.6795
也无法	-11.6795
的特色	-11.6795
奥运会	-11.6796
代号	-11.6798
耐高温	-11.6798
多吃一些	-11.6798
西游记	-11.6798
通透	-11.6798
北区	-11.6799
隐患	-11.6799
181	-11.68
首席	-11.68
心悸	-11.6801
268	-11.6802
偏高	-11.6803
尽量避免	-11.6803
探险	-11.6803
6.9	-11.6804
4.4	-11.6804
星期	-11.6804
gp	-11.6805
无色	-11.6805
魔鬼	-11.6805
的都是	-11.6806
刨	-11.6806
嫉妒	-11.6807
的数字	-11.6807
就读	-11.6809
打扰	-11.6809
湿气	-11.6809
放学	-11.681
很舒服	-11.6811
添加剂	-11.6812
人教版	-11.6813
金黄	-11.6814
豪门	-11.6816
好坏	-11.6816
und	-11.6817
张力	-11.6817
烫伤	-11.6818
出入	-11.6819
宛	-11.682
碍	-11.682
一抹	-11.682
柳州	-11.6821
mr	-11.6821
参保	-11.6821
进行检查	-11.6822
转弯	-11.6822
bar	-11.6823
挺好	-11.6824
强者	-11.6824
坚果	-11.6825
因为有	-11.6825
第一位	-11.6826
另外一个	-11.6826
意义上	-11.6826
高强度	-11.6826
大家好	-11.6826
网线	-11.6826
辞职	-11.6828
中西医结合	-11.6828
一滴	-11.6829
512	-11.683
口臭	-11.6831
需要注意的是	-11.6831
充分的	-11.6831
衍	-11.6832
肝病	-11.6832
限时	-11.6834
人性	-11.6834
相关文章	-11.6834
第十三章	-11.6834
有权	-11.6835
之日起	-11.6835
防潮	-11.6836
抚养	-11.6836
修行	-11.6837
疑难	-11.6837
史诗	-11.6837
的性能	-11.6838
几下	-11.6838
等你来	-11.6838
描	-11.6838
弹力	-11.6839
散发	-11.6839
丸子	-11.6842
须知	-11.6843
med	-11.6846
黑名单	-11.6847
可以口服	-11.6848
既是	-11.6848
克制	-11.6849
回到了	-11.6854
蜗牛	-11.6854
甘肃省	-11.6855
南京市	-11.6856
街上	-11.6856
油门	-11.6857
背上	-11.6858
锁屏	-11.686
腕表	-11.686
大唐	-11.686
监察	-11.6861
畏	-11.6862
za	-11.6862
正常使用	-11.6862
的面积	-11.6862
入选	-11.6865
的客户	-11.6865
豆瓣	-11.6866
鹦鹉	-11.6866
岛上	-11.6867
gh	-11.6867
精致的	-11.6867
皮质	-11.6868
盖章	-11.6868
阶级	-11.6869
255	-11.687
rmb	-11.6871
逼真	-11.6871
要看你	-11.6871
长袖	-11.6872
要学会	-11.6872
个人认为	-11.6874
又会	-11.6875
每次都	-11.6876
完好	-11.6878
!!!!	-11.6878
畅通	-11.6879
温热	-11.688
不知道怎么	-11.6883
设置为	-11.6883
take	-11.6884
看一看	-11.6885
管理器	-11.6887
就不用	-11.6888
白白	-11.6888
趾	-11.6888
挂机	-11.6891
找一个	-11.6891
簇	-11.6891
自称	-11.6891
百家	-11.6892
展开全文	-11.6892
你是不是	-11.6892
传达	-11.6892
act	-11.6892
级别的	-11.6893
吉凶	-11.6893
的气息	-11.6895
时间长了	-11.6896
穿衣	-11.6898
精通	-11.6898
曾经的治疗情况和效果	-11.6899
有关部门	-11.6899
场比赛	-11.69
帐户	-11.6902
6.00	-11.6902
醛	-11.6902
中成药	-11.6903
学问	-11.6903
华北	-11.6903
咸阳	-11.6903
自慰	-11.6903
并有	-11.6904
一贯	-11.6904
的性质	-11.6904
干了	-11.6907
给别人	-11.6907
礼服	-11.6907
技术支持	-11.6908
制作方法	-11.6908
顽强	-11.691
两周	-11.691
的影评	-11.6911
开阔	-11.6914
六年	-11.6914
き	-11.6919
防晒霜	-11.6919
不相	-11.6919
枝条	-11.692
孙子	-11.692
的意见	-11.6923
月季	-11.6923
万吨	-11.6923
格子	-11.6923
可获得	-11.6924
大结局	-11.6927
简直是	-11.6928
400-	-11.6929
下跌	-11.6929
光学	-11.693
这部电影	-11.6931
更高的	-11.6934
也有很多	-11.6934
奇特	-11.6935
免费提供	-11.6935
因人而异	-11.6936
是你的	-11.6936
世界上最	-11.6936
itis	-11.6936
不见了	-11.6937
清代	-11.6937
深化	-11.694
美发	-11.694
鸭子	-11.694
流氓	-11.6941
吉林省	-11.6942
报复	-11.6943
唤醒	-11.6943
蠕动	-11.6944
治安	-11.6944
的主题	-11.6945
树枝	-11.6945
下拉	-11.6946
不能再	-11.6946
风采	-11.6946
脚步	-11.6949
你可能	-11.695
木工	-11.695
但又	-11.695
理论上	-11.6951
一角	-11.6951
民众	-11.6952
吞噬	-11.6952
真情	-11.6953
人关注	-11.6954
科学技术	-11.6955
误区	-11.6955
淡化	-11.6955
与否	-11.6957
十月	-11.6957
二代	-11.6959
或有	-11.696
cent	-11.696
牌照	-11.6961
与众不同	-11.6962
绚丽	-11.6963
捆	-11.6964
半个小时	-11.6966
良性	-11.6966
写着	-11.6967
香料	-11.6968
580	-11.6969
/11	-11.6969
立方米	-11.697
星光	-11.697
协作	-11.697
(100	-11.697
但还是	-11.6971
非要	-11.6971
青春痘	-11.6972
人人都	-11.6972
大多是	-11.6973
阴性	-11.6975
佛山市	-11.6977
228	-11.6977
ass	-11.6981
并提供	-11.6981
却在	-11.6981
解放军	-11.6983
心肌	-11.6983
向你	-11.6984
意境	-11.6984
估	-11.6986
突发	-11.6987
留给	-11.6987
复印	-11.6987
的病人	-11.6989
003	-11.6989
昂贵	-11.6991
羽毛	-11.6992
西药	-11.6992
逃避	-11.6993
随之	-11.6994
无可	-11.6994
客栈	-11.6996
的实际	-11.6996
魁	-11.6996
而被	-11.6996
不远	-11.6997
比赛中	-11.6998
学习的	-11.6998
厄	-11.6999
可以试试	-11.7
耐腐蚀	-11.7001
条规定	-11.7001
我叫	-11.7005
放出	-11.7007
的能量	-11.7007
come	-11.7007
虑	-11.7007
产品规格	-11.7008
类目	-11.7008
好人	-11.7015
一小时	-11.7015
母亲的	-11.7016
dvd	-11.7016
询价	-11.7016
强奸	-11.7016
在路上	-11.7016
中枢	-11.7018
日游	-11.702
自营	-11.702
艇	-11.7021
走廊	-11.7021
不仅能	-11.7021
肾炎	-11.7021
ster	-11.7025
勉	-11.7026
的美丽	-11.7026
越是	-11.7026
达不到	-11.7027
拨号	-11.7028
注释	-11.7029
一个小时	-11.7029
辛辣刺激性食物	-11.703
党委	-11.7034
典雅	-11.7034
核算	-11.7035
蔚	-11.7036
天王	-11.7037
架构	-11.7038
第一部	-11.7038
个子	-11.7038
fc	-11.7039
比重	-11.704
污垢	-11.7041
保管	-11.7041
烤肉	-11.7041
松动	-11.7042
正确答案	-11.7043
面色	-11.7043
2°	-11.7044
听听	-11.7044
的词语	-11.7045
治病	-11.7045
黑龙江省	-11.7047
开玩笑	-11.7047
fun	-11.7047
有意义	-11.7048
侵入	-11.7048
迦	-11.7049
化身	-11.7049
衔	-11.7049
初恋	-11.705
阵阵	-11.7051
它能	-11.7051
206	-11.7051
ifi	-11.7051
认为是	-11.7054
艾灸	-11.7055
尿路感染	-11.7055
才华	-11.7056
拌匀	-11.7056
挪	-11.7058
上半年	-11.7058
厂商指导价	-11.7059
联系地址	-11.7059
周五	-11.7059
玲珑	-11.7061
就能够	-11.7061
更年期	-11.7061
丁香	-11.7061
车轮	-11.7062
去医院做	-11.7062
4.6	-11.7064
水洗	-11.7066
八年	-11.7067
宝箱	-11.7069
第二季	-11.7069
自己做	-11.7071
二期	-11.7073
庄园	-11.7075
西门子	-11.7075
对决	-11.7076
白醋	-11.7077
奇葩	-11.7078
招财	-11.7079
体会到	-11.7079
向右	-11.708
小时后	-11.7081
果树	-11.7081
可是我	-11.7082
通畅	-11.7083
日晚	-11.7083
术语	-11.7083
法术	-11.7084
的天空	-11.7085
舍不得	-11.7085
辊	-11.7086
推理	-11.7086
-100	-11.7086
支付方式	-11.7086
一个新的	-11.7087
屋面	-11.7088
废水	-11.7089
看他	-11.7091
最喜欢的	-11.7092
拉丁	-11.7093
挣钱	-11.7093
在内的	-11.7093
开奖	-11.7094
同样是	-11.7094
汉堡	-11.7095
张家界	-11.7095
5.8	-11.7096
985	-11.7097
现在很多	-11.7098
这两天	-11.7098
奇怪的	-11.7099
tc	-11.71
开着	-11.7101
就让	-11.7101
抗氧化	-11.7101
不管你	-11.7103
丫头	-11.7104
三甲医院	-11.7106
连忙	-11.7107
可以用来	-11.7107
满满的	-11.7107
308	-11.7108
fm	-11.7109
一个月内	-11.7112
攒	-11.7116
的概率	-11.7117
的青春	-11.7117
vol	-11.7118
纸箱	-11.7118
010	-11.7118
在水中	-11.7119
尽力	-11.712
如果我们	-11.7122
引起了	-11.7123
漫威	-11.7124
我却	-11.7125
最容易	-11.7126
焯	-11.7126
这种情况下	-11.7127
焰	-11.7127
下部	-11.7129
状元	-11.7129
日在	-11.713
xp	-11.7131
被评为	-11.7133
电影院	-11.7133
每隔	-11.7133
保卫	-11.7136
外文名	-11.7137
我不会	-11.7137
特权	-11.7137
喝茶	-11.7138
傍晚	-11.7138
高一	-11.7139
指导价	-11.714
自在	-11.7142
强迫	-11.7142
额定	-11.7144
再将	-11.7145
国籍	-11.7145
3+	-11.7145
所引起的	-11.7148
横向	-11.7149
酬	-11.7149
小姑娘	-11.7149
聊城	-11.715
所以你	-11.7151
中饰演	-11.7152
银耳	-11.7152
就看	-11.7154
容易被	-11.7156
投放	-11.7156
+8	-11.7156
拖动	-11.7157
牛排	-11.7158
生日快乐	-11.7158
相近	-11.7158
技术的	-11.7158
及早	-11.7159
下手	-11.7161
mafengwo	-11.7162
蔽	-11.7162
亏损	-11.7164
系统中	-11.7165
联系邮箱	-11.7168
们曾经	-11.7169
句话	-11.717
饮食习惯	-11.717
脸颊	-11.7173
cho	-11.7174
晟	-11.7174
掐	-11.7175
电话咨询	-11.7175
游戏大小	-11.7177
查到	-11.7177
时间段	-11.7177
你我	-11.7178
的定义	-11.7179
客气	-11.7181
油烟机	-11.7181
理智	-11.7181
第十四章	-11.7182
蜡烛	-11.7182
因为我们	-11.7183
30.	-11.7184
除湿	-11.7184
清明节	-11.7186
本页	-11.7188
很开心	-11.7188
都是有	-11.7189
国语	-11.7189
any	-11.719
ele	-11.7191
七天	-11.7191
box	-11.7191
有多大	-11.7192
省电	-11.7193
营业时间	-11.7194
矿山	-11.7194
丘疹	-11.7194
可选择	-11.7195
羽毛球	-11.7196
三相	-11.7196
黄色的	-11.7199
2011-	-11.7199
改良	-11.72
用于治疗	-11.7202
主要内容	-11.7202
明代	-11.7203
bit	-11.7204
译文	-11.7205
陇	-11.7206
打开手机	-11.7207
舜	-11.7207
可以起到	-11.7207
转入	-11.7208
犯罪嫌疑人	-11.7209
搜索引擎	-11.7209
丝毫	-11.7209
补钙	-11.7212
润滑油	-11.7212
神圣	-11.7212
其中有	-11.7214
弘扬	-11.7214
循	-11.7216
自己也	-11.7217
洁面	-11.7219
历代	-11.7219
手提	-11.7221
出现问题	-11.7221
牙刷	-11.7222
央	-11.7223
class	-11.7223
oppor	-11.7223
自驾	-11.7224
防尘	-11.7224
晏	-11.7225
载体	-11.7226
最早的	-11.7226
的追求	-11.7229
处的	-11.723
专享	-11.723
樟	-11.7231
台阶	-11.7231
下水	-11.7232
皮鞋	-11.7232
赏析	-11.7233
器械	-11.7233
脸上的	-11.7234
双面	-11.7236
可靠性	-11.7238
来不及	-11.7239
美誉	-11.7239
比较适合	-11.7239
不孕症	-11.724
相对较	-11.7243
过硬	-11.7243
捂	-11.7243
解剖	-11.7244
最全	-11.7244
果肉	-11.7245
仙侠	-11.7246
白血病	-11.7247
这些都	-11.7248
洋洋	-11.7248
因为她	-11.725
乖乖	-11.7253
掌上	-11.7253
性价比高	-11.7253
字的	-11.7254
没有问题	-11.7255
鱼肉	-11.7256
晋升	-11.7257
西站	-11.7257
病例	-11.7258
教案	-11.726
报表	-11.7261
西区	-11.7262
怎么写	-11.7262
ste	-11.7263
五六	-11.7263
聚焦	-11.7266
给大家带来	-11.7266
婚纱照	-11.7266
1/4	-11.7268
贯穿	-11.7268
下方的	-11.727
指尖	-11.727
(0	-11.7271
惊人	-11.7271
美团	-11.7272
看我	-11.7274
一刻	-11.7275
莲子	-11.7276
下属	-11.7276
瓜子	-11.7277
胞	-11.7277
dan	-11.7277
节点	-11.7278
卑	-11.728
麻痹	-11.7282
几位	-11.7282
千元	-11.7282
纱布	-11.7283
用餐	-11.7283
同情	-11.7285
相逢	-11.7286
miui	-11.7286
陕	-11.7287
winxp	-11.7287
apple	-11.7289
现在就	-11.7289
六年级	-11.729
围观	-11.7293
医院的	-11.7293
信息化	-11.7294
毛细血管	-11.7295
总局	-11.7295
才好	-11.7296
消炎药	-11.7296
避孕药	-11.7296
人体内	-11.7297
安全生产	-11.7298
时髦	-11.7298
ev	-11.7298
没钱	-11.73
纳税	-11.73
ction	-11.73
已经在	-11.73
附属医院	-11.73
挽	-11.7301
的脚步	-11.7301
矿泉水	-11.7302
华人	-11.7302
膳食	-11.7302
大红	-11.7303
财神	-11.7303
当他	-11.7303
被他	-11.7304
明日	-11.7305
嵌	-11.7306
健身房	-11.7306
!《	-11.7306
wps	-11.7307
摄影师	-11.7307
缓冲	-11.7309
nb	-11.7309
车位	-11.7311
一个字	-11.7311
中选择	-11.7312
相关阅读	-11.7315
258	-11.7316
更新日志	-11.7316
坚实	-11.7316
每年的	-11.7319
醒了	-11.732
run	-11.7321
甜品	-11.7322
气流	-11.7323
小动物	-11.7324
只剩下	-11.7325
007	-11.7326
总的来说	-11.7327
改正	-11.7327
更适合	-11.7327
的意思是	-11.7329
总分	-11.733
悍	-11.733
有余	-11.733
莽	-11.7331
准确性	-11.7332
焚	-11.7332
@163.	-11.7333
淋巴结	-11.7334
变了	-11.7334
玖	-11.7335
空心	-11.7335
about	-11.7338
进门	-11.7339
在手机	-11.7339
烯	-11.7339
软组织	-11.734
她也	-11.734
外汇	-11.7341
其中一个	-11.7341
黎明	-11.7343
spa	-11.7343
停药	-11.7343
轻轻的	-11.7344
399	-11.7344
···	-11.7345
胃口	-11.7346
234	-11.7346
离别	-11.7347
颠	-11.7347
不贵	-11.7347
的心灵	-11.7348
588	-11.7348
""	-11.735
通俗	-11.735
的利益	-11.7351
甲方	-11.7352
害羞	-11.7352
个大	-11.7354
怎么办呢	-11.7354
投资金额	-11.7355
确切	-11.7355
报名时间	-11.7357
高空	-11.7357
录入	-11.7358
补气	-11.7358
智能化	-11.7359
+5	-11.736
想办法	-11.736
主食	-11.7361
莫名	-11.7362
以致	-11.7363
4500	-11.7364
exe	-11.7365
将近	-11.7365
掌控	-11.7366
更加的	-11.7367
苞	-11.7368
本金	-11.7369
有明显的	-11.737
锂电池	-11.7371
无疑是	-11.7372
后背	-11.7374
应及时	-11.7374
方形	-11.7375
取下	-11.7375
也喜欢	-11.7376
▁1	-11.7376
曲折	-11.7379
德州	-11.7379
的战斗	-11.7379
脊髓	-11.7381
演艺	-11.7382
宴会	-11.7384
逛街	-11.7384
恒大	-11.7385
检修	-11.7387
朦胧	-11.7388
螺杆	-11.7389
管理人员	-11.739
xs	-11.739
9001	-11.739
有限公司地址	-11.7391
口水	-11.7391
20°	-11.7392
吸引力	-11.7392
高价	-11.7392
收货	-11.7392
的范围	-11.7393
人评价暂无报价	-11.7394
一律	-11.7394
登记机关	-11.7394
五笔	-11.7394
演变	-11.7395
来这里	-11.7396
七月	-11.7396
审判	-11.7397
储备	-11.7397
开盘	-11.7398
尊贵	-11.7398
黄昏	-11.7398
应该怎么	-11.7398
硒	-11.7399
不得转载	-11.74
。2014	-11.74
并能	-11.74
这三个	-11.7401
敏捷	-11.7403
扫一扫下载	-11.7404
万人民币	-11.7404
踏板	-11.7405
5-6	-11.7405
ib	-11.7405
性功能障碍	-11.7406
的动物	-11.7406
606	-11.7406
胃溃疡	-11.7407
.12	-11.7407
坐落于	-11.7408
最基本的	-11.7409
异界	-11.741
剖	-11.7411
1100	-11.7413
腐败	-11.7414
最新预订	-11.7415
的最高	-11.7415
的危险	-11.7416
213	-11.7416
是哪	-11.7417
社会保险	-11.7417
下面我们	-11.7419
折腾	-11.7419
教会	-11.7421
前提是	-11.7424
出去玩	-11.7424
重度	-11.7425
心意	-11.7426
?[	-11.7426
直接在	-11.7426
制服	-11.7427
什么地方	-11.7427
口服液	-11.7427
高质量	-11.7428
162	-11.7428
不畅	-11.7428
那段	-11.7428
青岛市	-11.7429
people	-11.7429
既能	-11.7429
直角	-11.7431
音效	-11.7432
不认识	-11.7433
成名	-11.7435
千古	-11.7436
耐克	-11.7437
form	-11.7437
增进	-11.7437
冬瓜	-11.7438
颜料	-11.744
789	-11.7441
分量	-11.7443
归纳	-11.7444
平台上	-11.7444
天数	-11.7445
糜烂	-11.7446
植发	-11.7446
的英文	-11.7447
追究	-11.7447
阿拉伯	-11.7448
贵妃	-11.7448
起码	-11.7449
游记	-11.745
窜	-11.7451
投注	-11.7453
发帖	-11.7454
腰带	-11.7456
正常情况下	-11.7456
qui	-11.7457
肝肾	-11.7457
抱歉	-11.7458
小鸡	-11.7458
之后的	-11.7459
医用	-11.7461
复位	-11.7461
八十	-11.7461
腰痛	-11.7462
诸如	-11.7462
不是说	-11.7462
菏泽	-11.7462
002	-11.7463
回到家	-11.7464
忧伤	-11.7464
渗出	-11.7464
万分	-11.7464
的研发	-11.7465
晚饭	-11.7465
本领	-11.7467
公元前	-11.7467
发生变化	-11.7468
秒杀	-11.7468
的次数	-11.7469
就可以看到	-11.7469
同时也是	-11.747
丰厚	-11.7471
曾经的	-11.7472
的快乐	-11.7473
▁当前位置	-11.7474
要多少钱	-11.7477
几十年	-11.7479
头孢	-11.748
劣	-11.7481
峡谷	-11.7481
7.9	-11.7482
空军	-11.7483
的第一个	-11.7483
搁	-11.7485
的市场	-11.7486
毅力	-11.7487
售出	-11.7489
实名	-11.7489
站起来	-11.749
酸碱	-11.749
世界各地	-11.7491
注音	-11.7492
再到	-11.7495
襟	-11.7495
010-	-11.7495
口罩	-11.7495
假装	-11.7497
极高	-11.7498
灸	-11.7498
太后	-11.75
不忘	-11.75
tr	-11.7502
残疾人	-11.7503
选举	-11.7503
启发	-11.7503
微型	-11.7505
今天我	-11.7505
到当地	-11.7506
最新更新	-11.7506
下文	-11.7507
苍白	-11.7507
忌食	-11.7509
益生菌	-11.7509
溶剂	-11.751
武警	-11.751
八月	-11.751
假的	-11.7511
会增加	-11.7512
440	-11.7513
hs	-11.7514
范畴	-11.7515
298	-11.7516
的植物	-11.7517
聚合	-11.7518
最近的	-11.752
玩了	-11.752
厚重	-11.7521
今天是	-11.7521
混沌	-11.7521
少数民族	-11.7521
学习和	-11.7521
意见反馈	-11.7522
自卑	-11.7522
品德	-11.7522
可以尝试	-11.7523
痔	-11.7523
四海	-11.7525
big	-11.7526
体外	-11.7528
)3、	-11.7529
纷	-11.7529
试过	-11.7529
豆类	-11.7529
850	-11.753
终生	-11.753
综合评分	-11.7531
车速	-11.7532
或者其他	-11.7533
有这样的	-11.7533
寺庙	-11.7533
第十五章	-11.7534
col	-11.7535
穿透	-11.7536
自然的	-11.7537
大灯	-11.7537
航空公司	-11.7538
有事	-11.7538
不正确	-11.7539
回复追问	-11.7539
kk	-11.754
整数	-11.7542
之余	-11.7542
问他	-11.7544
喷漆	-11.7544
向后	-11.7546
防盗门	-11.7546
黑眼圈	-11.7547
被封	-11.7547
小三	-11.7548
的字	-11.7548
知道的	-11.755
泄露	-11.755
pic	-11.755
第十六章	-11.7551
消退	-11.7552
踏实	-11.7552
388	-11.7552
的国家	-11.7554
身旁	-11.7556
更重要的是	-11.7558
可以参考	-11.7558
勇于	-11.7559
引流	-11.7559
zy	-11.7561
民用	-11.7561
熟知	-11.7561
喜欢的菜	-11.7561
告诉他	-11.7563
明目	-11.7563
不明显	-11.7565
row	-11.7566
个回答	-11.7566
一向	-11.7566
鸣人	-11.7567
的男生	-11.7567
业余	-11.7568
总面积	-11.7568
官方微信	-11.7568
书包	-11.7568
从容	-11.7569
就是说	-11.757
趋	-11.757
意为	-11.7571
苟	-11.7571
留下的	-11.7572
逃跑	-11.7573
旅馆	-11.7574
国家标准	-11.7574
圈子	-11.7575
谈恋爱	-11.7578
襄	-11.7579
吃法	-11.7581
武林	-11.7583
钰	-11.7585
班车	-11.7586
。12、	-11.7586
预留	-11.7587
高分子	-11.7587
.99	-11.7588
980	-11.7589
就跟	-11.7589
小时左右	-11.759
的诊治	-11.759
希腊	-11.759
侦查	-11.7591
打着	-11.7592
ら	-11.7594
在他的	-11.7595
的标志	-11.7595
怎么治疗	-11.7598
点击右上角	-11.7598
珠子	-11.7598
仙人	-11.7599
叫声	-11.76
相继	-11.76
教导	-11.7604
申诉	-11.7606
耳边	-11.7606
值得信赖	-11.7606
失落	-11.7608
.1.	-11.7609
全屏	-11.7609
)3.	-11.7609
手机壳	-11.761
房间里	-11.7611
栏杆	-11.7611
前段时间	-11.7612
沙拉	-11.7612
的营养价值	-11.7613
落户	-11.7613
颅	-11.7613
考场	-11.7614
山庄	-11.7615
(10)	-11.7615
的场景	-11.7615
硝酸	-11.7617
尼龙	-11.7617
烟酒	-11.7617
件事	-11.7618
对皮肤	-11.7619
癸	-11.7619
百花	-11.7619
可供	-11.762
抗癌	-11.762
的大型	-11.7621
大城市	-11.7623
血型	-11.7624
效率高	-11.7624
蕾丝	-11.7625
交通便利	-11.7625
会更加	-11.7627
春夏	-11.7627
多用	-11.7627
打折	-11.7628
反光	-11.7628
想说	-11.7629
个工作日	-11.7629
最快的	-11.7629
寇	-11.763
data	-11.7631
什么问题	-11.7631
牛皮	-11.7631
网名	-11.7635
失踪	-11.7636
99.	-11.7636
而且是	-11.7636
巴士	-11.7638
市中心	-11.764
人情	-11.764
会影响到	-11.764
苦瓜	-11.7642
给它	-11.7643
主要以	-11.7643
àn	-11.7643
家务	-11.7643
骑行	-11.7644
内心的	-11.7644
罕	-11.7648
严重影响	-11.7648
什么叫	-11.7651
即便是	-11.7651
青睐	-11.7652
穿刺	-11.7652
收到了	-11.7654
母爱	-11.7654
心目中	-11.7656
营养素	-11.7656
银色	-11.7658
无痛	-11.7659
八大	-11.766
残疾	-11.7662
马来西亚	-11.7662
颐	-11.7662
现实中	-11.7663
17:00	-11.7663
相关版本	-11.7663
石英	-11.7664
好评度买家印象	-11.7664
公司拥有	-11.7667
退役	-11.7668
要怎么	-11.767
平平	-11.7671
亚马逊	-11.7672
生生	-11.7673
池塘	-11.7674
一到	-11.7674
任何一个	-11.7674
不是很好	-11.7675
全国统一	-11.7675
安阳	-11.7676
ition	-11.7676
所有人都	-11.7677
再一次	-11.7678
生了	-11.7678
活动时间	-11.7679
高跟鞋	-11.768
应力	-11.768
徒弟	-11.7681
倾城	-11.7683
服从	-11.7683
一年的	-11.7683
抗战	-11.7684
:139	-11.7685
的药	-11.7685
手环	-11.7686
限额	-11.7686
像个	-11.7688
用完	-11.7689
公布的	-11.7689
力求	-11.7689
ker	-11.7689
相关问题	-11.769
原价	-11.769
热播	-11.7691
在微信	-11.7691
动了	-11.7693
车门	-11.7693
祝愿	-11.7694
中文大小	-11.7694
表面的	-11.7694
7.4	-11.7695
凉拌	-11.7696
有自己的	-11.7697
咀嚼	-11.7697
开具	-11.7698
仓鼠	-11.7699
对联	-11.7699
隋	-11.7699
全网通	-11.7701
根据不同	-11.7702
中断	-11.7703
月经周期	-11.7703
这个词	-11.7703
名言	-11.7706
时间和	-11.7706
工商信息	-11.7706
脐	-11.7706
同伴	-11.7706
在你的	-11.7706
感人	-11.7707
缺失	-11.7708
申请表	-11.7708
school	-11.7708
很想	-11.7709
抚摸	-11.7709
自带的	-11.771
有很多种	-11.771
命中	-11.7711
根本就	-11.7714
矿物	-11.7716
gr	-11.7717
宿迁	-11.7717
不平	-11.7718
gdp	-11.772
拉肚子	-11.7721
粽子	-11.7723
教堂	-11.7723
清华	-11.7723
传说中的	-11.7724
玥	-11.7725
胃部	-11.7725
小店	-11.7725
+4	-11.7725
两款	-11.7726
车厢	-11.7726
后排	-11.7726
争霸	-11.7728
端午节	-11.7728
腹黑	-11.7729
佳人	-11.7729
我们都知道	-11.7729
高职	-11.7729
极强	-11.773
5-8	-11.7731
春天的	-11.7731
心愿	-11.7733
有几	-11.7734
204	-11.7734
肝癌	-11.7734
净利润	-11.7735
微软	-11.7735
后视镜	-11.7736
摄像机	-11.7736
薪酬	-11.7736
矫	-11.7737
杨幂	-11.7738
因为是	-11.7739
并对	-11.7739
是人类	-11.774
圆圆	-11.774
解开	-11.774
isbn	-11.7741
edu	-11.7741
相信大家	-11.7741
very	-11.7742
转到	-11.7743
继发	-11.7743
回了	-11.7743
次日	-11.7745
我国的	-11.7745
亲近	-11.7745
今年的	-11.7747
交付	-11.7747
兰花	-11.7748
水位	-11.7749
的车辆	-11.7749
本事	-11.7749
的形成	-11.775
评定	-11.7752
mer	-11.7752
终结	-11.7753
合资	-11.7754
红尘	-11.7755
我只是	-11.7757
肝功能	-11.7758
system	-11.7759
也让	-11.7761
西门	-11.7761
乙醇	-11.7762
.【	-11.7763
简化	-11.7764
网站上	-11.7764
小编推荐	-11.7765
时辰	-11.7765
zol	-11.7765
监理	-11.7765
的人们	-11.7766
尽头	-11.7768
准则	-11.777
具有一定的	-11.7771
增值	-11.7772
下面我们就	-11.7773
不得不说	-11.7774
杏仁	-11.7774
面霜	-11.7775
星际	-11.7775
股市	-11.7775
方便快捷	-11.7775
躲避	-11.7775
清洗干净	-11.7775
哥们	-11.7776
这家店	-11.7777
的状况	-11.7777
的工资	-11.7778
非常多	-11.7778
录用	-11.7779
无形	-11.778
”。“	-11.778
较强	-11.7781
条点评	-11.7781
匿名用户	-11.7783
镇静	-11.7785
成一个	-11.7786
代购	-11.7786
有所帮助	-11.7786
从小就	-11.7787
战神	-11.7788
图表	-11.779
变的	-11.7791
末日	-11.7791
25°	-11.7792
控制在	-11.7792
就上	-11.7793
<>	-11.7793
束缚	-11.7795
字形	-11.7795
狄	-11.7796
免费咨询	-11.7797
统一的	-11.7797
指向	-11.7799
加分	-11.7801
必须在	-11.7801
的差异	-11.7802
被打	-11.7802
沥	-11.7803
生产加工	-11.7803
放手	-11.7803
环氧	-11.7804
旷	-11.7805
为中国	-11.7805
沉迷	-11.7807
onthe	-11.7808
power	-11.7809
会变	-11.7809
蹄	-11.7812
感觉很	-11.7813
有的是	-11.7814
的重点	-11.7817
第十七章	-11.7817
哪儿	-11.7818
养老金	-11.7819
微信群	-11.782
万事	-11.782
7.3	-11.7821
兴起	-11.7821
花色	-11.7821
富豪	-11.7822
联络	-11.7823
磁盘	-11.7823
笑脸	-11.7825
质量问题	-11.7825
的销售	-11.7826
出生日期	-11.7827
给人一种	-11.7828
too	-11.7829
上百	-11.7829
上部	-11.7829
google	-11.783
)1.	-11.7831
鞘	-11.7832
扮	-11.7833
一点都不	-11.7834
开裂	-11.7835
港口	-11.7836
宽敞	-11.7837
340	-11.7838
阻燃	-11.7838
无缝钢管	-11.7838
678	-11.7839
从而使	-11.784
走的	-11.7841
帮您	-11.7842
自古	-11.7842
全天	-11.7843
箍	-11.7844
类药物	-11.7845
调动	-11.7845
壮观	-11.7846
污泥	-11.7847
市长	-11.7847
好啊	-11.7847
买来	-11.7847
中医药	-11.7849
031	-11.785
girl	-11.785
无语	-11.7851
推荐使用	-11.7852
中间的	-11.7852
请以	-11.7852
激烈的	-11.7852
罗汉	-11.7853
的礼物	-11.7853
采暖	-11.7853
37.	-11.7854
黄油	-11.7855
叶酸	-11.7855
390	-11.7855
餐具	-11.7856
itunes	-11.7857
烨	-11.786
嘻嘻	-11.786
460	-11.7862
莆田	-11.7862
也只是	-11.7862
卵子	-11.7862
而且在	-11.7863
张照片	-11.7863
不曾	-11.7864
就是因为	-11.7865
呦	-11.7865
加油站	-11.7865
养分	-11.7866
相声	-11.7866
签署	-11.7866
佰	-11.7866
王牌	-11.7868
怎样才能	-11.7869
诀	-11.7869
改名	-11.7871
中学生	-11.7871
ze	-11.7871
狠狠	-11.7873
好听的	-11.7873
一个好的	-11.7875
zhu	-11.7876
哪有	-11.7876
钝	-11.7877
黑夜	-11.7878
——《	-11.7878
作弊	-11.788
换算	-11.7881
粉红色	-11.7881
3.9	-11.7883
女星	-11.7884
非常不错的	-11.7884
三条	-11.7885
屏幕上	-11.7885
违法行为	-11.7886
困惑	-11.7886
以上是	-11.7887
buff	-11.7887
红烧	-11.7889
种族	-11.789
两家	-11.7891
)3	-11.7891
还有其他	-11.7892
应该注意	-11.7894
加减	-11.7895
首要	-11.7895
劳务	-11.7895
等一系列	-11.7896
袭击	-11.7897
明确诊断	-11.7897
延安	-11.7897
的造型	-11.7898
蓝色的	-11.7898
出游	-11.7899
蔓延	-11.7899
为客户	-11.7901
war	-11.7901
鼻塞	-11.7902
匿名分享到微博提交回答全部答案	-11.7902
要选择	-11.7903
也曾	-11.7904
;4	-11.7905
固定资产	-11.7905
旅程	-11.7907
057	-11.7907
一刀	-11.7908
39.	-11.791
赶到	-11.791
托盘	-11.791
并用	-11.7913
整容	-11.7915
注册资金	-11.7915
尊严	-11.7916
做为	-11.7917
机芯	-11.7917
人力	-11.7917
admin	-11.7918
步入	-11.7918
yan	-11.7918
豌豆	-11.792
写得	-11.7921
日本人	-11.7921
cor	-11.7922
那只	-11.7922
招募	-11.7922
rn	-11.7922
dx	-11.7922
217	-11.7923
样的	-11.7923
平凡的	-11.7924
刀具	-11.7924
只知道	-11.7924
回复过类似的问题	-11.7925
奇异	-11.7925
再看	-11.7926
tro	-11.7926
推销	-11.7927
名额	-11.7927
纠缠	-11.7927
诱人	-11.7927
:010-5922279	-11.7927
都不错	-11.7928
may	-11.7928
必有	-11.7929
vc	-11.7929
几乎是	-11.793
416	-11.7931
309	-11.7933
有你	-11.7934
有足够的	-11.7935
鲜美	-11.7935
传导	-11.7936
蛾	-11.7937
撤销	-11.7939
大批	-11.7939
再现	-11.7939
剧院	-11.7939
等都	-11.7942
一步步	-11.7943
164	-11.7943
金鱼	-11.7944
计数	-11.7944
长期的	-11.7945
坚固	-11.7946
对症	-11.7947
关注我们	-11.7947
条评论星级来自业内综合评估	-11.7947
不由	-11.7947
分支	-11.7948
[...]
